00000000
00000000
00000000
00000000
00000000
00000000
00000000
00000000
00000000
00000000
00000000
00000000
00000000
00000000
00000000
00000000
00000000
00000000
00000000
00000000
00002bbf
ffffe5c9
00003c46
00003a71
00003dcc
000021a9
ffffe732
ffffe5b8
0000276b
0000157e
00000bd2
ffffdfc5
fffffdce
ffffdfb1
0000293d
fffffe2c
fffff2b4
00001ec6
ffffe23e
00001180
fffff9f9
fffff67a
000002a0
ffffedb9
00001eab
fffff35b
00003c2c
ffffe8d9
00003033
ffffdff8
ffffeb86
00000521
ffffdd9f
ffffe509
ffffc582
ffffdddd
000020de
00003c91
fffffd7c
ffffdcb2
fffffd3a
fffff8db
fffff311
ffffd7a8
00001d20
00003ba7
00002f60
00000b77
00002638
000033ac
ffffd889
0000034d
ffffcb7c
00003460
000020ac
00002aaa
ffffdfee
ffffd07b
ffffff47
ffffeed7
00003063
ffffe737
ffffcfbe
00000cbc
00002c79
00003c80
ffffcf38
ffffc535
00003df8
ffffc746
ffffde03
00003201
fffff3bb
000003f5
00001d12
ffffc3f1
ffffdbe9
ffffd526
00001078
ffffd872
00003804
ffffd101
ffffdd01
ffffe273
00002d8e
00002fea
000005cf
ffffda30
00000475
ffffff40
00001b4a
0000261e
00002593
ffffdc5d
00001cba
ffffee25
fffff606
ffffcc3b
00000758
ffffed48
00000ecc
000022d3
00002f98
00003550
00000728
00001e1f
000019df
000036a6
00002c10
00000ea6
00003827
0000261f
ffffdbc3
0000395b
000018d1
00002361
ffffc524
fffff350
ffffef27
ffffc4f6
fffffd94
ffffff26
000027ef
ffffe3da
fffff126
ffffba3a
ffffda12
ffffe4d2
ffffe134
ffffff0a
ffffd7e6
ffffef4d
ffffdf82
ffffff82
0000297a
00002fd2
0000341d
00002c99
000016ee
ffffedad
00000d02
000017f1
ffffc74e
000039bb
ffffcf44
ffffcc0a
ffffe43c
ffffdfcd
fffff4f6
00002bbe
0000062e
000030f8
000038e1
ffffe2af
ffffe0f2
ffffd37d
00001778
00001c21
ffffcc0d
00003d5e
00003609
00002e4d
0000285b
fffff5b3
00000ebb
ffffffb7
00002934
00002a1d
00003ac5
000012b7
00001f5e
fffff235
ffffc7f1
00001146
ffffe861
0000287d
00000b22
ffffe27a
000014e9
ffffdc72
00001b73
ffffd4ea
0000298a
00000240
00001e8a
0000358f
ffffdafd
ffffeb15
ffffdc00
ffffde6a
00002ddd
fffff5a4
ffffee9c
fffffe4b
00003057
00000d16
ffffc6ec
ffffce34
ffffdec2
ffffc8a4
ffffeff4
0000037f
ffffd03b
00001b84
ffffd522
0000275e
fffff43f
00002ff1
ffffe6e9
fffffad0
0000001b
00000160
ffffd2bb
ffffd510
ffffe50e
00003723
000012b4
00000d34
0000441b
00003ec9
fffffc47
ffffd4f9
00002ef3
fffff5d7
fffff9b2
ffffcb75
00002eb5
ffffd92b
fffffef0
ffffc48d
00000c8f
0000363b
00000d17
ffffdc0d
ffffdb0b
00000c0e
00000e51
ffffec06
000021e0
000026ea
fffff4f4
00000347
ffffdd79
fffff60d
ffffe94b
ffffee57
00000d93
ffffe4df
000043c1
fffff0c5
00001a94
00000bbe
ffffd5ed
ffffe665
ffffc357
00000445
ffffd0aa
00000a31
00002c45
000017f0
00000095
ffffed3e
000044ef
00003838
0000066a
0000120a
ffffcb8a
ffffb342
ffffd2ca
00001512
00000f27
ffffe632
00000a62
0000052c
00003954
000016cc
fffff561
000001ad
00001831
fffffaf5
00000f31
ffffd475
ffffffaa
000025fb
0000140a
ffffdb69
ffffc7bc
fffffcc3
ffffef7d
ffffd847
fffff53b
00000d7c
ffffcc4c
00002123
000014c6
fffff672
ffffdfdf
000024ed
ffffc7d1
000027a0
ffffcbb5
ffffda01
ffffd3b8
0000066e
00002c2d
fffffa42
0000065f
fffff11a
ffffe5e8
ffffe0d9
ffffec8a
00002377
00001c98
ffffff42
ffffdb2b
00001193
00003cc0
00000277
000015cb
ffffd29f
ffffedcb
0000267b
ffffcfa0
00001a5c
00004b66
fffff193
00000e4d
0000136e
ffffe8c5
ffffd7b3
fffff526
ffffe94c
0000300e
ffffdbc4
ffffe8b9
fffff487
ffffda69
ffffcd78
ffffe137
ffffee24
000018a1
0000068a
00001bdb
00002a82
ffffe71f
00001627
000042a6
00004a67
fffff150
fffff9bb
00003f87
000036af
00004a31
0000570a
00002211
00003234
ffffd6ce
00003bad
000003f9
ffffff35
0000331b
000017a6
000010a8
ffffd33e
00001840
ffffd1ab
00002173
00001b5f
ffffc6ae
00001d31
ffffd0b6
ffffee9b
0000045e
ffffe8ed
00003692
00001cbc
00000b2e
00004bb5
00002f9a
0000447d
00004ea1
00004469
ffffd348
0000215d
ffffdbc3
ffffdd66
fffff143
fffff093
000026d1
fffff718
000037aa
ffffd7ec
ffffd26a
ffffeb86
000033cf
fffffa99
00000e1e
000013be
00000fb9
000016d0
00000bfc
00002995
fffff118
00002f77
000050e1
00004c18
00003aed
00005457
00003c58
00003dc3
00003da1
0000244d
000018a4
00002f0e
00000471
ffffdbff
000001bc
fffffc5b
ffffd7dc
ffffe497
fffff941
ffffec45
00003d46
00000ae2
ffffd08b
fffff8e4
ffffd139
00001486
ffffda2f
ffffefde
fffff833
fffff90a
00001c39
00002737
fffffb01
00003356
00003099
00003f77
000028e9
fffff03c
ffffe0b3
00003439
00000f1e
000022f7
00002f18
ffffcc4e
ffffd594
00000629
ffffc6ba
00003dbc
00002a6e
ffffd4f0
ffffc779
000008a0
00001896
ffffd547
00003c15
ffffe4be
000022d7
ffffee85
00004fd7
fffff978
00002e5a
00002229
0000227f
000038fc
ffffc9eb
fffff8e3
00003c01
000029b0
ffffc412
0000236f
ffffd4dc
00001d3d
ffffe93f
ffffdf61
00001cdc
fffff8de
ffffe868
00003956
00002f3e
00002d9d
ffffc3d9
ffffdf47
ffffcfcd
00002939
00001e26
fffff240
00001e92
00003c7e
00005630
fffff487
00001cd4
000031bf
000012af
ffffd03e
ffffe372
0000163f
0000057c
ffffca02
fffff5f4
00002ffd
ffffd4b7
00001bd3
0000207a
ffffcc61
00003e48
ffffc745
00001c40
ffffbfe2
ffffe8bf
00002d45
fffff4a6
fffffae1
000023f4
00002f18
00000d51
000002d5
ffffdfe4
00001db0
0000060b
00000c1f
00001488
ffffeb13
fffffa75
00002466
0000052c
ffffcb95
00000083
00001a4c
ffffd7b9
ffffd1de
00000031
fffffaf6
ffffecdc
00000c08
ffffc5e5
00003486
ffffda3d
ffffb92f
ffffbb15
00000221
ffffdc94
00002469
ffffbe8c
000002ed
ffffc244
0000060d
00000efc
ffffd2e6
000013dc
00001b80
fffffd17
00000b0f
00002771
ffffe549
00001df6
ffffdf5b
0000279c
ffffcaa3
fffff65a
fffff903
ffffe31c
ffffc612
00002ddd
fffffb9c
ffffdbc8
fffff06a
fffff8d7
000022af
ffffbd68
ffffd65f
ffffb75e
ffffeb1a
00001d76
00000f64
00001da4
00000dd7
ffffeca1
fffffb58
00001d6c
0000137c
fffff919
ffffcbf1
ffffd76a
fffff127
ffffc995
ffffe55c
00001074
00002842
000034b3
ffffe0e1
fffffa84
ffffe767
ffffbfb3
fffffe0f
ffffdbba
ffffdd75
fffff759
ffffbf54
000030fc
ffffcba3
00001eeb
0000123b
ffffcce6
0000372f
0000038f
ffffe67b
00002817
00002505
fffff931
ffffd4b5
00001ae2
ffffc029
fffff936
000006f4
ffffc7e5
ffffc9a7
fffff611
ffffc2fe
00000aee
ffffe341
0000215b
ffffca2e
00000db3
00002b1f
ffffffd3
0000454e
ffffe15c
000032cd
ffffd015
0000198b
000022ed
00000670
000015d1
00000295
00001932
000004c2
0000198c
ffffeee2
ffffc4b6
00000f47
0000232d
00001f57
ffffc0cd
00001486
000022c2
fffffce4
ffffe795
00003906
00000b60
ffffc4dd
00001136
00002226
ffffdba8
00002d90
ffffe918
00000f21
fffff7e8
ffffe619
00003bac
ffffd36a
00003a68
00001041
ffffcdfd
00000446
fffff318
000029ce
000039ad
00003790
00002068
ffffd6ea
ffffc2b0
ffffff6f
ffffe9ee
00002003
00000c88
00001ecf
0000308f
000018b9
000019f0
00001b8c
000029a6
ffffe5a4
00004b29
ffffd6cb
ffffec0e
ffffdf3f
ffffe61f
0000021e
00002334
000012f1
0000252a
00003e6b
ffffc784
00002482
000014e1
00003369
ffffdd93
000027f6
000035a1
0000116d
00000a54
00002f4a
fffff306
ffffd89d
000019bf
ffffe39e
fffff03a
ffffef57
fffffd82
ffffebff
fffff0cd
00002523
00003c09
ffffdfbf
00003fa6
fffff0f6
00002d3e
ffffe06b
fffff639
ffffe4e5
000027c5
ffffc1d7
ffffe548
00003626
fffffb2d
ffffe248
0000200e
00002e24
00003172
00002688
ffffe37a
ffffd60c
ffffddbf
000015e1
000028d2
ffffe6fc
ffffdcc6
fffffc07
00002416
ffffce39
fffff047
ffffe13b
ffffd809
00001b26
0000335b
fffff7dd
00000675
00001cff
000024c8
ffffeab4
00001b96
ffffc9c5
fffffdfc
ffffeba2
000027bb
00003a1c
00000002
00001db4
ffffc325
ffffd7a0
00001231
ffffc3c4
0000053b
00003e24
fffff4f7
00002b8f
00002388
ffffd951
000036de
ffffee47
fffff5de
ffffffc7
ffffd21e
ffffdcb2
000010f0
0000023a
ffffe6b2
ffffdf3b
00002e0e
00003f61
000013f6
ffffe6eb
00000000
00000000
00000000
00000000
00000000
00000000
00000000
00000000
00000000
00000000
00000000
00000000
00000000
00000000
00000000
00000000
00000000
00000000
00000000
00000000