00000000
00000000
00000000
00000000
00000000
00000000
00000000
00000000
00000000
00000000
00000000
00000000
00000000
00000000
00000000
00000000
00000000
00000000
00000000
00000000
000026fe
00003bed
fffff9cd
ffffeeaf
ffffea4b
fffffa14
ffffd0f4
ffffd89d
ffffe278
00002ab0
fffff83c
fffff172
ffffdb94
ffffeeeb
ffffd59b
0000056a
00001996
ffffc7a4
fffff989
00000c31
000009aa
ffffc121
fffff9b1
00003914
00001393
ffffc7b7
000013c8
00002882
00000716
ffffd69d
0000332a
0000194f
000036d2
ffffde46
00000b1e
00003195
ffffe3ac
00002bda
ffffcdae
ffffc280
00000d3c
fffff4e4
ffffd00a
ffffd153
000000f4
000018aa
ffffd23d
000021e0
ffffd0ac
fffffb9d
00001ad6
ffffe743
000030a2
00000b53
ffffeca5
00001a93
00002870
ffffe436
00003051
fffffa60
000012a2
00002ca6
fffff08b
fffffb49
ffffd448
00003617
00001d53
fffff3b7
ffffda5d
000039c3
00003505
ffffedf5
fffff332
fffffff4
ffffc6e4
ffffeca5
ffffff7b
ffffc089
ffffd32a
000007ca
ffffeca7
ffffefff
00003064
ffffec78
ffffce29
00002183
ffffde95
ffffd427
ffffc0ad
ffffe408
00000d0a
00000f47
ffffd38d
000002ab
00003053
000033d0
fffffe98
00000d12
ffffd371
000029e9
00001812
0000323e
ffffe705
ffffe0c9
000007f0
ffffc3cf
ffffed34
fffffd04
ffffe4c6
00001d41
ffffd1bf
000025c9
fffff23f
0000210f
00003230
000038ef
fffff057
fffff96c
fffff1ca
ffffd623
ffffff5f
000015c3
000005a3
ffffc24b
ffffdabe
00000e47
ffffdc85
ffffe4a8
00003adc
fffff343
ffffc4e5
ffffe8c1
ffffd0f4
ffffcc35
ffffc0a5
fffff518
ffffc4af
0000023f
00001def
ffffe6d0
00000941
00002a37
00000974
ffffdcf6
00003885
0000114f
ffffc677
ffffe173
fffff887
fffffbde
00001b4b
000011b6
000016ce
000017da
ffffd273
00001c5b
000027cc
ffffdbac
ffffd288
000039e0
ffffef0c
0000035d
ffffc350
ffffc5ad
00003d64
00000344
00002d83
00002d25
ffffeba6
00002d16
000035c9
00002940
ffffe399
ffffd0ed
00003660
00002e36
ffffd953
fffff000
ffffff9b
ffffd7dc
0000001c
ffffceee
000034b6
00001cb1
ffffd4a1
fffff452
ffffe9fa
ffffca27
ffffdfbf
000004ad
ffffff2d
fffff6fb
000023cb
ffffee52
0000249c
fffff307
fffff4b2
ffffd485
ffffd0c5
000031b4
000019c4
00002572
fffffde3
000026f7
00001fb5
ffffe08e
fffff199
fffffbbb
ffffc1bb
000012d5
ffffc20a
000027ca
0000285e
ffffcf45
ffffd601
ffffca79
000017fd
ffffe291
000027f9
ffffdcd6
00001adb
ffffef36
ffffce1a
000021b8
fffff94d
000006b0
000038e8
00002f6c
ffffcca4
ffffee11
00003085
ffffdcb7
00000e71
ffffc9a2
00001cf7
ffffe576
ffffdd44
00002cf1
00001bb4
00002613
ffffbc70
ffffda47
00000463
ffffde00
fffffd75
fffff623
00003086
ffffd252
000007c1
ffffd00b
000003ff
00003be5
ffffea64
ffffd917
ffffd6fe
ffffd950
000002e9
ffffe071
ffffc85d
0000120c
ffffcbe5
00003e26
00003ee3
ffffef46
0000240f
ffffc4b6
00002641
ffffe554
ffffee29
fffff7d3
00002d17
ffffc1f4
fffffd5f
ffffcb05
fffff23e
00002980
ffffd533
000009c7
ffffcfd2
ffffc7c5
00000921
000035e8
ffffe8d1
fffffd55
fffff882
ffffdf13
ffffd3a4
ffffefd9
ffffdb1a
ffffc083
ffffda81
ffffe979
fffffa1f
ffffd170
ffffe40b
00002bff
fffff52c
00002aba
00000385
000008f8
00001c88
ffffe6d3
ffffffd8
ffffe6f0
ffffd0aa
ffffda3f
fffff039
ffffebac
ffffcb4d
0000374a
ffffe4ed
00000b29
ffffc552
0000291f
ffffc322
00003c13
ffffcc2a
00000292
fffff808
00003b6f
00000f25
ffffd607
ffffd38a
00002920
ffffcaae
000029d0
00002b92
fffff5c1
fffff929
fffff754
00000b43
000021ad
ffffd33d
00003fa9
fffff7b1
00002918
00002e35
fffff07f
00001d08
00002c29
00002c86
ffffc2ae
fffff629
ffffd077
000000a5
00003bf2
000028b1
ffffe93b
ffffc5e4
0000256a
ffffe75d
ffffe602
000025ce
ffffb94c
00000d6e
fffffb62
ffffef16
ffffd19f
ffffdb87
ffffdd2c
00000cac
00002299
fffff5fc
ffffdaec
ffffe369
ffffc002
0000319a
00001f4c
00002219
00002e48
ffffe64e
ffffe173
fffff552
00001ece
000007b6
fffff809
ffffda2a
00001384
ffffc653
00003289
00002d9b
00003831
000031ac
00003cdc
000032b6
fffffd47
00003140
ffffe94d
ffffd649
000014e3
000004a0
0000213c
00000837
00001937
ffffe84b
ffffc128
00001deb
ffffcde7
fffff3d7
00000062
000026e2
ffffe13d
ffffe9a3
ffffdc66
00002814
ffffdd2c
fffff789
ffffd441
ffffd05e
000007d7
000031b0
ffffe29e
ffffda42
000039f3
000010a4
ffffda41
000012b4
00003f6f
00002e39
ffffd0d7
ffffecb0
00002717
000012d9
00003cd1
00003c73
fffff0c8
0000360a
fffff17c
000009f8
ffffc56c
ffffd308
00000168
000008ea
ffffd79a
00000c96
ffffc2df
ffffd6b4
000010f6
ffffe400
fffffbf0
ffffd686
ffffcb19
ffffd5b6
ffffcdd6
00002df8
000007cf
00000bf1
00001e80
ffffff4a
000014ca
00000d6d
000001e1
000014e8
000017ac
00000392
ffffe5e4
0000255e
ffffc31e
000018c4
0000251d
ffffca11
fffff0a1
ffffe21d
fffffda0
00000067
00001363
ffffd690
ffffeac2
ffffd799
00001124
00003aa0
000014ea
000038ad
fffffc4b
ffffc58d
ffffd159
ffffcf18
000002c7
00001ccd
ffffd64d
000030ee
00001bff
ffffd673
fffffd1e
ffffd782
00000968
ffffdaed
00000302
000024e0
00001661
ffffcaa4
ffffe009
00003164
ffffca6c
ffffc38e
0000136b
ffffd956
00002752
0000213e
00000220
000035c5
000024bc
ffffd9fe
ffffec5c
0000060e
00003fed
fffff787
00003f89
ffffcb75
ffffdb2f
fffff845
fffffb90
ffffd36c
000028bf
00002188
ffffd32b
ffffc8a0
00000f2e
ffffcf31
fffffb73
ffffd636
ffffd6db
000035da
00001f34
ffffd2ee
fffff1e0
fffff87d
00000f2f
00000b37
ffffdd34
ffffcaa2
00001e5a
000012fe
fffffbc9
000017c7
00001bba
ffffd51b
fffffbf6
00000ce0
00001717
0000108a
00000e0d
00001a09
ffffc3a9
0000353b
fffff1d5
0000323d
ffffcbe2
ffffded2
000032f4
fffff5a5
ffffee9d
ffffc6a6
fffff54a
fffff502
00000c69
00002afa
00001134
00001873
ffffc0f7
ffffcb7c
fffff161
ffffd3c6
00003408
ffffd53d
0000192f
fffff17f
ffffd01a
00001338
000033f0
ffffcfd6
ffffcf5d
fffff6dc
00001a1e
00003ac6
fffff236
fffff336
000039b1
fffffe0f
ffffee7f
fffff107
00001a74
fffff143
00001726
ffffe7a2
00001cdc
000008d9
00002b43
ffffd4d7
fffff429
000024d1
ffffe116
00000606
00002434
00000bf9
fffff6a6
ffffbe58
ffffd074
000025a7
0000013d
00002432
ffffe541
fffff36c
ffffbb70
fffff356
000014f0
000005a9
00000563
0000301d
ffffca0b
00002351
ffffec86
000033b5
fffff414
ffffdf4e
0000222d
ffffebe3
ffffef92
fffffc93
0000252c
ffffca0e
ffffd878
0000200b
00003bc5
00001f4d
ffffc950
ffffeedc
00002daf
ffffc207
ffffd078
fffffc73
ffffefa8
00002334
00002a07
fffffe52
0000244f
ffffc8a2
fffff8a8
ffffe897
00002549
000037a6
ffffca0c
ffffdf7e
00002fc4
000031c6
0000061d
ffffeeed
00001d0d
fffff966
000015c9
00000309
fffff896
fffff338
00000630
00000818
00003157
00000182
0000116b
fffffc64
0000003f
00000c9f
ffffd075
00002f41
000007f8
00002d9c
00002b1d
ffffda75
00003d5e
ffffc013
00003b45
ffffef05
00002637
0000242d
fffffee1
fffff60b
00000147
fffff274
00001d03
00003691
fffffcc2
00002c75
fffffadc
ffffd7c5
ffffcef5
0000122f
ffffc46f
000029e2
000036f6
ffffdc4c
000007fa
ffffe5a3
000020b4
00003d3a
fffff8f2
00003bf7
00001e33
fffff530
ffffdf80
fffffa95
00003a83
00002b05
00003ea0
fffffda7
fffffb2d
00002ca8
00003c59
000031d0
00001e16
ffffff49
00003d85
00001ffc
ffffdd76
00003d56
0000185b
0000208a
ffffea8e
ffffc7df
ffffc1c5
0000087d
000029cf
ffffc5cd
000032fe
00001e8a
fffff1bf
00002b98
00002710
00000d54
00001768
00001513
0000080d
00001849
000037f9
ffffd551
ffffd327
ffffec52
fffff1f7
00002367
00003668
ffffcf06
ffffc576
ffffe0b4
0000045e
fffff017
ffffc4a0
ffffc3df
000016f7
00002690
000024af
ffffdfa2
00000934
ffffd66a
00000417
00000644
000024c2
000028a1
000027c1
ffffe56e
000012c7
fffffeb7
ffffda2c
fffff829
00001db4
ffffe975
fffff2e4
ffffde8c
ffffc3d6
00003f70
000006e4
ffffff90
000015c4
00000ca1
00003704
000004c5
ffffc8af
0000123c
ffffc904
00002549
fffff1f0
00003488
ffffddf8
000020fb
ffffe082
00003a2b
ffffca75
00000000
00000000
00000000
00000000
00000000
00000000
00000000
00000000
00000000
00000000
00000000
00000000
00000000
00000000
00000000
00000000
00000000
00000000
00000000
00000000