00000000
00000000
00000000
00000000
00000000
00000000
00000000
00000000
00000000
00000000
00000000
00000000
00000000
00000000
00000000
00000000
00000000
00000000
00000000
00000000
0000291f
ffffd5eb
ffffe954
00000b36
00002587
00000dfb
fffffe8d
00003b63
00001e04
ffffc9cd
00003ff7
ffffe644
fffff411
00003e03
ffffec87
ffffe54a
00000045
00000fb3
0000181a
ffffe79b
ffffe397
00003a3f
00001116
fffffb62
00002880
00001a64
ffffc476
00002151
ffffcec7
00002165
00000cdc
00000a30
00001c64
00000506
0000192d
00000073
ffffeec1
00003472
fffffc8d
ffffdbc9
ffffcd93
fffff26d
ffffd7e7
00003a74
ffffe1b3
00003983
ffffe58c
00002ae1
00000d0f
00000789
ffffc9f9
000009b9
ffffde1e
ffffd2f0
ffffd925
00003976
0000139b
fffff506
ffffdeaa
000006f8
00001670
000031d1
ffffd464
00001db0
00003490
ffffc04a
ffffc61e
ffffc3da
00003b4a
000007a9
ffffe7d8
ffffc516
00002266
ffffc712
ffffcba9
0000129b
ffffd3f6
ffffe518
ffffeaea
00002a0c
00003942
00001d5d
ffffecf3
ffffcc69
fffff929
ffffdced
ffffff21
fffff2e6
000016b6
fffff8aa
ffffd13e
00002413
ffffe8c0
fffff40e
ffffd784
0000001f
fffff922
0000065d
fffffd16
000029af
00000d5c
ffffdc14
fffff311
00003c7f
00001e40
fffffec3
ffffdc18
000000e8
fffff8e4
00001f97
ffffed88
00001fff
00003154
fffffc0f
000024c6
ffffc950
ffffe7b1
0000239a
00000705
ffffc32a
ffffd38c
ffffc05a
ffffcbe4
ffffc1e9
ffffe3d1
ffffee69
ffffcf10
00001f23
00003906
ffffcc27
ffffdb6d
0000333c
ffffc46b
ffffe4d9
ffffcd82
00002b52
ffffe6ad
ffffd09e
ffffe339
00002909
ffffd5f0
0000221f
ffffedd5
ffffe89d
fffff7b9
ffffc90c
ffffdadc
00003ad5
ffffe30c
fffffd95
000034b3
00001090
fffff105
000005d8
00000a90
ffffe186
00001bce
ffffe85e
ffffd2ae
fffff823
000007a4
000020bd
ffffe057
00000beb
ffffdffa
ffffe699
ffffcb79
ffffdaea
ffffdda2
00001c19
00003f5a
00003c47
000039dc
0000233d
000005e5
fffffbc2
ffffc003
ffffc68c
ffffd9fa
ffffddfa
00003943
00003652
ffffead8
ffffde16
ffffe5ad
ffffe366
ffffbff6
ffffe984
ffffdfe8
fffff5d4
00000ffc
0000133d
ffffe1eb
00000edd
0000142f
ffffd316
0000133b
ffffeea6
ffffd31f
fffff239
ffffd048
fffffeb4
000037d0
00001291
ffffe1a4
fffff362
ffffbf31
ffffe1e3
ffffe1a7
000031e6
ffffd817
00003496
fffff2a9
00001bc1
ffffc8f6
ffffc91c
000032ce
fffffe8c
fffff864
000006bb
ffffde74
ffffdaef
000004c3
000019b3
ffffe3c0
000006d7
00002612
00001387
ffffda7c
000015d8
00001568
fffffb6c
0000212a
00000375
ffffffc2
fffffea9
00000e25
ffffe2e9
00002f4a
00002234
fffff2b5
ffffcd79
00000914
00001beb
000021f8
ffffc4e9
00001790
00001ce2
ffffd140
00001a41
00003c59
0000182b
ffffe0a9
00002ec0
ffffccac
0000134e
0000111d
ffffc486
ffffc207
00001ffb
00002213
00001447
ffffe6c2
ffffc50c
0000088e
ffffc49b
fffff7d4
000028ba
fffff216
00000846
000016ad
00002cd6
000002b9
ffffc235
ffffec7e
000039ef
00003817
00002c2c
00003cf7
fffffa1a
00000996
00003976
000016f1
ffffc329
ffffcc01
ffffd090
fffffa9a
00003086
ffffeb62
ffffc904
ffffea01
00000588
000025d8
000002aa
000030ba
fffffb38
00003039
000028b1
000025fe
00003079
ffffe0b9
ffffd2a2
ffffea9f
ffffd741
000006af
00001c76
00003980
fffffe93
00000651
00002bec
00002dde
0000150e
000003e2
000000e0
000015a8
ffffee1b
0000234f
0000287a
0000262b
fffff73f
ffffcf67
00003b0d
00000650
ffffdba3
0000026f
000026cb
ffffc194
00000b3c
ffffc41c
ffffd124
ffffe707
00001a29
00003802
fffff6ed
000020c7
00002048
00003e73
ffffc34f
ffffe6f7
00002028
ffffc0f1
00001405
ffffcfc9
fffffc6e
00000d71
ffffe5d6
0000135c
00002c88
fffff7b4
ffffc3cc
ffffc0ba
ffffe264
ffffeba6
ffffca04
ffffcdd7
0000082c
0000139e
0000277f
00003785
ffffeaa7
ffffcad4
ffffcc4e
000025e1
00003ba1
00000107
00002e54
00003ce7
ffffc68b
00002b97
fffff08e
000038ad
ffffe7b9
ffffe4e9
ffffcfa3
00001016
fffff399
ffffd19d
ffffc177
ffffc32e
ffffc458
ffffddf6
00000ff4
ffffc31b
00003422
000007b2
fffff263
fffff93f
ffffd9d6
ffffd46a
fffffd4d
fffff597
000032d5
fffff413
000019f2
ffffc9b7
ffffdd6e
ffffda73
ffffebc6
00000aec
00002720
ffffe527
00000958
ffffe373
ffffe372
0000309b
0000378f
000015ca
ffffd3da
ffffe3ab
000019e8
00001656
00001a80
ffffbeb2
00003521
ffffd6e7
00001423
00001451
ffffd690
ffffc5ee
ffffde27
0000075e
ffffc9c8
fffff740
00003a13
000012e9
00001406
ffffc384
000030fe
ffffca74
00000bad
fffffacf
00002aa3
00001520
fffff816
ffffc21a
ffffce07
000009ad
ffffb867
00002dee
fffff297
000003d3
00002357
00002c1b
ffffd419
ffffe8b9
ffffdec4
00001a79
ffffcb3e
fffff339
fffff662
0000120c
ffffea92
fffffd4d
ffffeaac
ffffd30f
000015ab
000028f2
ffffdfa0
00002be6
ffffd09c
ffffd201
ffffdb3f
ffffdaad
00001a61
ffffe4d7
ffffe650
ffffc9fa
ffffffe2
ffffea57
ffffd388
0000366a
ffffd5e1
00001069
ffffdcdd
fffff9cb
00002239
ffffcf90
0000090e
ffffcb95
ffffdd2c
ffffd630
ffffec0b
ffffe231
fffffe5b
0000157f
ffffe41d
00000d62
fffffd72
00003127
ffffe105
00003afc
ffffe7a6
ffffc356
000006d6
ffffda1d
ffffe341
fffff4cf
fffff124
ffffdabc
00001971
000014f5
00002047
ffffc454
ffffcda2
0000102b
ffffda31
000016e1
00003c2e
ffffce01
000022b6
ffffc5a2
ffffbff8
ffffd4b3
00001760
fffff96b
ffffdafe
00002f8d
fffffdba
0000066f
ffffecf5
ffffbe1f
ffffc08f
00002592
000032e9
000019d8
000016b2
ffffc8c0
fffff264
00002442
ffffeb0d
ffffe235
00001d50
ffffd0e3
000020a6
00000c4e
fffff3ab
0000068c
ffffd476
000019f7
00002c22
fffffe68
000038ee
fffff686
000026b7
ffffcdc9
ffffe579
00001e6a
00000c95
00000348
ffffe058
fffff003
ffffef2b
ffffe24e
ffffe829
fffff72b
00000cdf
fffff332
00000e0c
000018d7
000036b7
00000fba
000028bc
00001dc8
ffffc02f
ffffd1c0
ffffe63d
00000c39
ffffed06
00000cf4
ffffd9b3
ffffea5f
ffffc201
ffffe8c0
00001769
00001711
ffffdde5
0000342e
000025e8
00002c8a
000002ab
000036d2
000028ec
ffffef63
00002afa
00003963
ffffd64c
ffffe05c
ffffc335
0000096e
ffffffb5
ffffff29
ffffda00
00003989
fffffd3c
fffff339
fffffc05
00003464
fffff930
ffffc870
ffffe69f
ffffc15d
ffffd023
00001699
00001923
00000352
ffffdde2
ffffd81c
00002e80
0000395c
0000198b
ffffe0e8
ffffffa4
ffffe56e
fffff349
fffffe29
000038a1
000032b1
ffffd690
ffffc0ba
00000f55
ffffdfa9
000036cc
00002ea1
ffffea3c
fffffb20
0000279f
ffffe40e
00001a6a
ffffed01
ffffeae0
000004aa
00000b68
00001911
000011ca
0000382c
ffffdbb8
fffff70e
ffffdb57
ffffc5cf
00003173
fffff012
00000042
ffffe5a9
fffffffe
000007aa
0000016b
00002115
fffff59f
ffffdb1e
000000ba
0000261e
ffffd6e0
000028ee
000035f8
00001ea2
ffffe12e
ffffc058
00000d61
00003451
ffffc019
ffffe59c
ffffe234
000006e4
ffffd457
ffffc2ba
00000718
ffffdc02
fffff1d2
00002534
00000e43
ffffe98b
fffff885
ffffea4e
ffffe4d7
ffffec86
00002e39
00000708
00000294
000009f7
000018df
ffffddfa
00000015
ffffe96b
00000f16
fffff2c2
fffff804
00002f40
00002116
000027f2
00002d62
ffffd80a
ffffee71
00002713
ffffc11f
000034fc
ffffe79e
00000111
000013fb
00000813
fffff9fb
fffff7b6
00001e91
000008ce
ffffe9d4
00003cca
ffffffa5
ffffca63
000031ec
ffffed90
ffffc1ea
ffffccfb
00003077
000038ab
00000991
00002516
00003887
0000324a
000015b9
000017f2
ffffd56a
0000152f
00003454
0000161b
ffffe6df
ffffebdb
000018e5
fffffe2e
fffff57c
ffffe649
ffffd67b
000000b8
00000d1c
000009f9
ffffd2a9
ffffe177
00003baf
000032b0
00001e97
ffffd4a9
ffffcf19
00002479
ffffbf5f
ffffcd56
fffffa52
00000ec4
00000f9b
ffffe01a
00002c0c
00000e91
00000564
0000380a
ffffc46f
000007e4
0000279e
00000e1e
00000865
ffffe94a
0000054d
ffffcf17
00002ead
000003e9
00000625
00001203
ffffd893
00000b80
ffffc4fe
00000bbe
000004e7
000035d7
00002bbc
000030a4
fffffcde
ffffca81
fffffd3a
00001aa0
000033d0
000002fb
000019bf
ffffe49f
fffffe6b
00003356
00002e17
00001f97
000001df
00000000
00000000
00000000
00000000
00000000
00000000
00000000
00000000
00000000
00000000
00000000
00000000
00000000
00000000
00000000
00000000
00000000
00000000
00000000
00000000