00000000
00000000
00000000
00000000
00000000
00000000
00000000
00000000
00000000
00000000
00000000
00000000
00000000
00000000
00000000
00000000
00000000
00000000
00000000
00000000
00003106
ffffdbf5
00001d01
00002b9f
fffff9ff
00002d29
fffff340
0000318d
0000218b
000034ac
0000276b
ffffdd07
00000ccd
ffffc5dd
ffffe80a
00003730
0000145d
000039d9
fffff0da
ffffd12c
00000cc6
0000199e
ffffe35b
000024c6
000016f6
00002407
fffff782
0000303e
fffffafb
000034a5
00003c32
000016b6
ffffd722
fffff9ec
000011f8
00002d2b
fffffa65
ffffc375
00001741
000031cc
00000f91
ffffc1c4
00002e90
ffffd38f
ffffed2c
00003777
00001dc6
0000370d
00001d72
fffff333
00001fb3
fffffdc0
00001b47
ffffed65
ffffdc71
000012ec
ffffec29
00002d37
ffffd158
00002caf
ffffc10a
ffffc5e8
ffffd826
0000348f
fffffd0f
00001d98
00001c2f
0000335e
ffffcbe2
000006c9
00000eb7
ffffe0e5
fffff9ea
ffffcbc7
ffffcad9
00001621
000032ea
ffffcbc7
00002f7c
ffffc7aa
00001bf6
fffff299
ffffd41a
00003f82
ffffd931
00002939
ffffdb0b
000018e6
00002bca
00003fd1
00003146
fffff7b8
ffffc5ac
fffffedf
000041c7
00001210
000033d2
000033f4
ffffedc0
000007c1
00003caa
fffff93a
fffff19f
00000109
000029e0
0000470a
fffff63f
00001831
fffff05a
fffff348
ffffeac5
00003882
ffffefd6
fffffdb8
fffff9fd
00000483
ffffeb1f
ffffcbf1
ffffea9f
fffff356
00000272
fffffa09
ffffff51
ffffcf22
000033bb
00002748
ffffd337
00004624
000022bb
fffff102
00004560
000025f8
0000064a
ffffdd24
ffffd3e5
000021b9
ffffc875
ffffd726
00001ac1
ffffc6e1
00002128
fffff357
00001dcc
000004c4
ffffeb17
00000ca2
ffffcc8b
fffff7b9
00000c4c
00003b29
ffffebae
00002bb7
000009bf
ffffde38
ffffed93
ffffd747
000020b9
000017dd
00001056
000027fb
00002eb8
ffffea3e
00003cba
000012e6
fffff077
00001ea1
0000058e
00001f50
00001df1
000029e1
00001425
ffffd843
ffffda46
00001994
00002fe1
0000033b
00000042
00001d3a
ffffd913
00003396
00001ca7
000002ca
0000144d
00001e0f
fffff4c4
ffffd739
ffffd1d0
fffff78e
ffffdfec
ffffd810
0000090b
000015af
00001bf2
ffffdc29
ffffed90
fffff9bf
00002a64
00002af9
ffffde35
fffff262
ffffef19
000028b8
000022d2
fffff175
ffffef29
ffffe538
00000217
00002d43
ffffd736
ffffe575
fffffb38
fffff181
00001baf
fffff155
000020d4
ffffc026
ffffc9cc
fffff56f
0000111b
00000497
00000d7c
ffffde70
ffffec23
0000062d
fffff887
ffffe25a
ffffd785
ffffd30a
000020e5
ffffc4e2
000036de
000007f8
000026b4
000023bf
000022e7
ffffead3
fffff25b
00000c94
fffff620
ffffdbc4
ffffd520
00002eca
ffffcd96
ffffdf01
ffffb36c
ffffeaf7
ffffe6d6
0000050e
00000ffd
fffff7dc
00000fc3
00000919
0000057c
fffff923
0000090e
ffffcb23
000038b8
00000454
ffffe435
0000280c
fffff8f0
ffffc752
ffffe7f4
00001215
00003012
00000c94
000006ff
ffffd8a3
ffffe117
fffff931
ffffcfcf
fffff276
00001115
ffffe10b
00000367
ffffb1fd
000022d6
00000afa
00001105
ffffcd18
00001c61
000006c3
ffffc0e3
0000211f
00000698
00000309
ffffc87e
fffff89e
00001bf7
fffff28c
ffffd71c
fffffbab
00000dbe
fffff07a
00002647
ffffe429
fffff292
ffffe0c2
ffffc156
ffffcc70
ffffd8c0
00000116
000018db
000025cd
00002059
000036f9
ffffe5e0
ffffcbcd
ffffc895
fffff453
ffffdea9
fffff45a
ffffd173
000032b2
00002305
0000083b
00001328
00002a7f
00003e4f
fffff869
00001a9f
ffffd03e
ffffce2b
ffffe157
ffffe72f
00000f08
00002384
ffffc857
00002132
000009e6
ffffc9dc
00001db7
fffff870
ffffc146
ffffe84f
00000b35
0000203a
fffffb4b
000006a7
ffffe5a0
00000d3c
000026e1
fffff20f
000028c3
ffffe4b8
00002676
ffffd7ce
00001713
ffffec15
ffffd33f
ffffc60f
ffffef78
fffff6a3
ffffdd23
000013e7
ffffc7ca
000010c3
00002b28
ffffc7c8
00002c03
ffffdb05
ffffe613
00002abe
00002145
0000061f
fffff14a
00001f23
ffffe9aa
fffffd8e
fffff067
00001ac6
ffffd641
fffffe28
fffff27b
fffffc19
ffffe986
000034fd
ffffe1b8
ffffcae6
00001eec
ffffd117
000031d6
ffffd7ce
000004a1
fffffae5
00002cab
00000123
fffff1e3
0000319f
0000260d
00002cc8
0000339b
00003875
fffffaa8
ffffed98
fffff536
000026b4
ffffe17f
ffffd2bb
000037ca
000030b6
0000215e
0000105f
0000198a
00001a68
ffffe06a
00001962
ffffe134
000033ff
ffffe582
ffffe5dd
000048af
fffff96e
fffff34d
0000394d
000038a0
ffffce1f
00000940
00003336
ffffde88
0000399d
00003c99
0000205c
00000555
ffffc23f
0000022e
00000279
00001406
00004591
00004827
00002249
fffffe21
ffffeed3
00001b59
ffffdcb9
0000336d
00004417
00001d5f
ffffed0c
ffffe36f
ffffe0ad
00001390
ffffe6ad
ffffe42c
ffffcc1c
fffffe00
ffffd9bb
fffffc97
000029bd
ffffc92f
00002abf
fffffc52
0000323c
ffffd4bc
ffffe2c2
000043e8
0000351c
000048f3
00004dcd
000027c8
000033c0
00002f85
000034a7
ffffd2ae
ffffe5c4
000021eb
000015bb
00000dd4
00004a81
00003207
0000120c
00002f53
ffffcb2c
fffffc5e
fffffae7
00002c0a
ffffce28
ffffd1ac
00000693
00000cba
fffff2f6
ffffd02f
fffff824
000007f4
ffffe3b3
00005558
00002ce3
0000447a
00002fc9
ffffdc1e
000050dc
ffffec69
0000187a
00000c33
00000539
0000309b
ffffe6b1
00000d79
fffffce8
00003de4
ffffcec3
fffff425
00003c11
fffff915
ffffdbb2
00000603
000019cd
fffffd70
ffffe721
ffffcd12
000002f6
00004420
ffffd8d7
000042fb
000026fb
000043a1
0000388f
00001e4c
ffffed17
ffffe4ef
00003745
00004df6
ffffe200
ffffd74f
00002536
000034f9
ffffe99c
ffffc71f
00003f02
00002d11
ffffee8b
fffff5bf
ffffc1c1
ffffe809
0000126e
000005e4
00003a0e
fffff837
ffffee56
ffffd1b2
000025d2
000027fa
00004022
0000224f
0000557d
00001c9d
ffffdafb
00004657
ffffe644
000047da
fffffaca
000032f1
ffffccf5
00000be5
00001e2b
00003ff9
ffffde07
0000041c
000035b4
ffffffe3
fffffc8e
00003312
00003bc4
00002698
ffffc57d
00003656
ffffc9fe
000006b7
000022a4
ffffdbc0
00003edc
ffffebe9
00003788
00002001
00000cfa
00001832
0000123b
fffffac1
fffff6a0
000030da
00003d1e
ffffd7d3
ffffeed2
00003fbc
fffffd0e
ffffd1f2
0000088b
ffffc671
ffffec5a
ffffcc12
fffffc3a
00000c1b
0000087f
00002783
ffffc27c
00001858
00002678
ffffdc4e
000040a6
00000c0c
000021b2
00004bb4
00003d9a
0000160b
00000fea
00000487
00001d6f
ffffd780
ffffe0c0
fffff950
ffffd0ee
00001340
000037b0
ffffe55d
ffffc123
ffffe03b
0000271e
00001ade
ffffd1e0
00002b6c
00003b81
fffff192
00000b6b
ffffed50
fffffc33
ffffe9d2
ffffde66
fffff7bd
00002fb4
ffffc089
000033bb
ffffdc52
ffffe61e
00003372
fffffd7e
fffffa85
ffffca48
ffffd5b7
0000013d
ffffc664
000015fe
ffffc764
ffffd3d6
ffffcd74
00003204
00001f9e
00002845
00002e7f
00003c34
fffff35f
0000074e
ffffde24
0000226e
fffff13b
fffff40b
ffffc6cf
00000831
ffffb68d
00000a2b
ffffd903
0000018c
ffffe478
ffffc7c6
00001b82
fffff6ea
fffff616
ffffea91
00001e44
0000030b
ffffc122
000028c8
00001514
0000164a
00002756
ffffe52b
ffffcfb8
ffffe474
ffffc7a2
00003043
000010e5
fffff7fb
ffffd30f
000017b3
fffff3ca
ffffbf66
ffffbcc9
0000373d
ffffb5c8
0000280a
00002a44
ffffe1a6
fffffb92
ffffe747
ffffd9e2
00003baa
ffffe4a7
ffffd90e
000004dd
000031b0
ffffe70d
ffffcafc
00001538
00002ac3
ffffea18
ffffcedb
ffffc05c
ffffe515
ffffc809
00000b69
00001f7a
00002448
000032af
00000887
fffff418
0000088c
00001259
ffffc389
00002240
000017ab
ffffe33c
000002dd
ffffd98a
ffffe4fa
ffffe59e
00000995
00000ca2
ffffcd7b
00001e2b
00003c93
000022e5
ffffc6f3
ffffc310
ffffde85
ffffe879
000016d8
00000a12
00000303
ffffea2c
00002504
000034e3
ffffc9a3
fffff507
000006d6
ffffe8d2
ffffefdb
ffffda17
00001ce5
00000ad7
00001b75
ffffec1c
00002d26
ffffe22e
ffffe06e
0000041c
fffff57c
ffffe71a
0000264f
000012e8
ffffea15
fffff082
fffff6e1
00003958
fffff38f
ffffc3e1
ffffcbe0
ffffc33b
ffffd372
ffffffe5
000033c7
0000197d
00003a41
00000f58
00001027
ffffd112
00002840
0000389b
00002582
ffffe5fa
00003e10
000000cc
ffffd305
ffffe92d
ffffde5d
00001391
00000000
00000000
00000000
00000000
00000000
00000000
00000000
00000000
00000000
00000000
00000000
00000000
00000000
00000000
00000000
00000000
00000000
00000000
00000000
00000000