00000000
00000000
00000000
00000000
00000000
00000000
00000000
00000000
00000000
00000000
00000000
00000000
00000000
00000000
00000000
00000000
00000000
00000000
00000000
00000000
fffff165
000008f5
00003d49
000000ee
ffffd0e1
00002fd8
000016fa
00002673
fffff8a7
ffffc3f4
00000de0
fffffeb2
ffffd1a9
fffff5af
ffffc6ad
ffffe22f
00000ee4
0000030b
0000304f
00001a72
00002712
000032d7
00002b8b
fffff58a
000002b4
00001bcf
0000307d
00001f60
00002600
ffffd5dd
00000487
ffffc8c7
000021d2
ffffc797
ffffc9fb
0000247e
ffffd08d
ffffd341
000012f3
ffffd867
0000314e
ffffdf99
ffffd70f
0000380a
00001b7f
00003294
ffffe624
00003e46
00002f30
00002277
fffffe0e
ffffeffb
000036fc
ffffeb30
fffffd41
ffffd742
fffffe03
ffffe2fc
ffffd68e
000004b7
00003239
ffffcd69
ffffcd7b
00003b58
ffffc2c9
ffffd1a4
ffffed5b
fffff086
ffffc8c4
0000137c
ffffeee7
ffffe1f6
ffffd06a
ffffc598
0000019d
ffffde18
ffffe3f5
ffffcfdb
ffffdc40
000025de
ffffd05d
00002cc4
00003af7
ffffd642
fffffb11
ffffcae1
ffffe54e
ffffee2e
fffffccc
00002c56
ffffda79
00000a22
fffff14d
000022e6
00003e6d
ffffe2ca
00002303
ffffffa2
fffffaea
ffffd786
ffffd375
ffffd04c
00000355
000025b2
fffff1ee
ffffefb9
ffffc510
fffff5cf
0000234a
ffffe674
0000231d
fffff078
0000387d
000019c9
000020b9
000025e4
000038a7
00002037
fffffbc4
00001b24
ffffcf2d
ffffcadb
00000409
ffffe8b5
000033d0
0000068e
00001de3
ffffef6d
fffffe5d
00001d93
00002945
ffffe7ae
000005c4
00002b65
00000fa6
ffffe252
00000333
0000064a
000030b8
ffffebd8
00001972
0000251c
000002e0
ffffc0a5
ffffedc1
ffffce33
00003783
000005aa
fffff976
00000b56
00000cad
00004aee
ffffd83a
00000fd4
00001600
00003b60
ffffe181
000034cd
00000bc3
00002322
000022b7
ffffe88b
000001eb
00003ac5
fffff555
00003f15
00000c16
0000293a
00002f82
ffffcd9b
ffffc1e3
00002f1c
00000547
fffff35e
0000217c
00001ea4
00003723
0000350c
00000311
00003ce3
ffffeb79
00005343
fffff252
000021f3
00002b70
fffff507
0000402d
ffffe6eb
00002533
ffffe2e4
ffffea10
0000200f
ffffcc7f
ffffd8fc
ffffc666
0000108c
000034a8
00001ce8
00000fb1
000008f8
ffffebef
00001bb9
00003dcc
ffffd2b3
fffff391
fffff450
ffffd4a1
fffff4ef
000047e1
00003f34
00001950
00002961
000037e8
ffffd8a5
00003f31
00003c1d
00001bd4
00002d42
ffffd7b9
00002949
ffffe865
00000bbb
00003407
00002183
000022d2
00003d82
00003756
00000bb2
ffffffd8
ffffdb9d
ffffdcc6
00000005
ffffda89
0000480b
ffffd53f
ffffe7f9
fffff579
ffffff6c
00002db4
ffffeb29
000011e7
ffffcea3
ffffe502
00000f1d
00000880
ffffde18
ffffd771
ffffee91
ffffc75a
00003a6a
0000311b
fffff384
00002d6e
fffffe1a
00001bfa
ffffdb94
ffffec1c
00002c79
00003685
ffffc557
00000841
00003deb
fffff747
0000161c
ffffdf42
ffffda8c
00001e86
000030ba
00001237
0000111d
ffffd9fe
00002a5d
00003998
000039dc
fffff745
00003ec5
000022b8
ffffd737
0000019c
00000565
00001ecd
00002fe7
ffffd133
000026c5
ffffcbd8
000027e4
0000246b
000017e2
fffff7a7
ffffe823
ffffece9
fffff441
ffffbd4d
ffffd8f9
ffffcde9
ffffe899
ffffd7cf
ffffd6ad
00003fe7
00000952
000013f8
ffffdbef
000029b9
0000079d
000035b0
000001ed
ffffe2e1
fffff6bc
fffff94c
ffffc7ad
fffffafd
00000999
00000ed1
ffffd36f
ffffd08c
ffffc2bf
0000393c
ffffd718
ffffc512
fffff5b7
fffff9e9
ffffde25
fffff168
ffffb649
fffff908
00000c57
fffffae6
00002cf9
ffffea2d
fffff35e
00002eac
00002129
ffffdc61
0000255c
ffffcd08
ffffe6ca
ffffc190
00003c14
ffffd804
ffffd926
ffffc856
00000fca
fffffdda
fffffa32
00001eac
ffffcd6f
00002432
ffffcb80
00001b73
ffffa922
ffffff3c
00001843
00000010
00002782
00001df6
00004570
ffffe6e4
00001d26
00002c0f
fffff880
fffff4ba
000007bc
ffffd3ce
ffffd42d
00002f5a
00003db2
fffffe80
00001629
fffffef8
00001b8d
ffffd3c5
ffffb7e0
00002d56
00002b52
000004fe
ffffe54c
ffffe99a
ffffb87c
ffffdd6e
00000fee
fffffafe
000039cb
ffffea58
ffffe8c4
ffffe64c
ffffe1d0
00001de0
00002ff7
ffffbdf8
0000200c
ffffd0d6
fffff121
00002e06
00003602
ffffc3c4
ffffdfd9
00000163
fffff5d2
ffffe2a2
00000a2d
00000fbc
fffffc83
ffffd918
000033f1
00002ea2
0000153c
00001ea6
ffffc53e
ffffeedf
000028b9
ffffe814
000012fc
ffffe179
fffffc54
ffffdbe6
00000951
ffffce91
00002f8d
ffffc814
00001d5b
ffffcd59
ffffdd57
0000345f
fffff31a
ffffe428
0000128d
ffffcba8
00000d93
ffffd7a6
00000ec6
0000301f
00000c4e
00003083
00002118
ffffe401
fffff13e
fffffdf8
ffffcff9
00000374
ffffcdfe
00001d3d
00002a82
ffffec74
ffffe41e
000030d4
00001792
ffffff5e
000005f4
00002483
ffffc90e
00001155
000031b3
ffffec00
00003431
ffffcfd9
000021bf
00001ff4
fffff648
00000b7a
ffffef70
ffffedfd
000019a5
ffffdd77
00004416
000045fd
000021d7
ffffefa4
0000065d
ffffc516
ffffbb22
ffffb721
00001b54
00000c56
ffffcaf1
fffffeed
00000f9b
ffffc9df
ffffe7b4
ffffc562
000027a0
ffffd1c8
0000133a
ffffed86
000003ec
00000dab
fffffc6f
ffffe725
00000515
0000178c
ffffe6c4
00001cc6
00002667
ffffe908
ffffe9d2
ffffdfdd
ffffe3ae
ffffcdc0
0000067b
0000314c
fffff869
000023d8
00002e76
ffffc82d
00000bba
ffffe4b7
fffff00c
fffff8a2
ffffc35e
00000f25
00001d5b
000027bf
ffffd4ab
000013d2
000029fc
0000386c
00003c53
00000b65
000031c3
0000332a
ffffd608
00004eb3
ffffdb82
ffffed26
ffffedac
0000186d
00002c61
00003a4c
00003b4b
0000207d
00000433
ffffd6e7
ffffd9df
ffffede1
ffffefbb
00001f05
000019da
00002d60
000022e3
ffffd24c
fffffa94
0000327f
00003482
fffffbf3
ffffecf0
000029a1
000021e0
ffffc7a2
00000bc1
ffffd28c
00002c2d
ffffcbe3
fffff0e6
0000376d
000022f6
ffffeba6
fffff74c
ffffe259
000006fd
0000249d
fffffabc
00002cf5
ffffe10f
ffffe5ed
00003a25
fffffd58
00002cce
00003495
000043ff
00003e35
fffff053
00003a00
ffffe22b
00002f91
fffff66c
fffffce1
ffffd04c
ffffc26e
00003637
fffffbba
fffffaad
fffff3c9
00001706
ffffd548
0000241e
000035d0
ffffeb9d
ffffdc8c
00001e92
00002a21
fffff742
ffffc51b
ffffdf2b
00001929
0000094d
00003f86
ffffe7b9
ffffd132
ffffe776
00002927
ffffbba2
ffffbae3
ffffda01
000027aa
ffffe58d
ffffc9ee
00003b18
00001b4c
0000417b
ffffff37
ffffda72
ffffe197
ffffd0e2
00002de9
00001d05
fffff194
00003b2e
ffffe2d7
000031bb
ffffc222
00002227
ffffc84b
00000b19
ffffc885
ffffd874
00002806
0000399e
000006b7
ffffe589
00003954
000002ae
ffffde29
00003399
ffffcac3
0000162d
ffffd5ea
0000113f
000002d9
00000436
0000314b
00003fbf
00002d30
ffffe548
ffffc713
0000171d
ffffe77d
00002361
ffffccd1
00001c7d
ffffc81a
ffffdccb
ffffd9bc
fffffab9
00002703
ffffcec7
000005b8
00001b10
fffff2ce
ffffdaaa
fffffd15
ffffeed0
000024fb
0000382e
ffffd628
00003a47
fffffe53
00000969
00001b12
0000051a
ffffe2e1
ffffdbc6
00001124
ffffe8ec
00000f1a
00002682
ffffd94c
ffffcb60
ffffeda0
0000019d
ffffd82f
000021b3
ffffd47b
000037ff
ffffeb8b
00002cc2
fffffc3f
fffff5a7
fffff64b
0000209d
ffffcb6b
00000464
ffffd2f7
00002e12
ffffef2c
000011ac
ffffe37c
00002862
00001d1c
ffffeb01
ffffe6a9
00000f5e
00001eaf
ffffdbde
ffffc3af
ffffff48
ffffffb5
ffffdb81
ffffca7a
000017c1
00001781
00003747
ffffdc9f
ffffea22
ffffc23f
ffffe0e5
ffffea74
ffffe048
ffffe5a8
ffffd0ee
ffffd634
ffffd56a
ffffcc35
ffffefb0
00002993
ffffd2d2
fffffb8a
00003e1c
ffffe6a8
00001a70
00001bb0
ffffdb00
00002fd1
00003a36
00001955
ffffcde7
ffffc6d7
00001675
00003889
000017a7
ffffe0c5
ffffe999
fffff344
00000091
ffffc54b
00000453
ffffc161
ffffdc45
ffffea19
ffffdeaa
00000408
00000fbc
00002910
ffffc704
00001ede
0000128c
ffffe19b
ffffe0ca
ffffe4af
00000dd8
ffffd656
ffffd11f
00000915
ffffd3cb
fffff3af
000038fc
00000491
fffff211
00001e66
ffffc71b
00002c87
00001c10
00001969
00001899
ffffc77f
00000a1c
ffffe643
ffffecc4
fffff641
00003387
ffffc7c2
ffffccb3
00002fc2
ffffc591
00000c6a
00002dee
00000000
00000000
00000000
00000000
00000000
00000000
00000000
00000000
00000000
00000000
00000000
00000000
00000000
00000000
00000000
00000000
00000000
00000000
00000000
00000000