00000000
00000000
00000000
00000000
00000000
00000000
00000000
00000000
00000000
00000000
00000000
00000000
00000000
00000000
00000000
00000000
00000000
00000000
00000000
00000000
ffffe9fe
ffffcbdf
0000086e
fffff234
ffffca58
ffffe8ae
0000106c
fffff99b
00001958
ffffe4ce
00000129
0000057e
ffffc082
000000b8
fffff34e
fffff62e
ffffcd6f
ffffdb2b
00001685
00001fd6
ffffef91
ffffd626
ffffc68d
ffffc9aa
ffffc989
ffffce34
ffffd19d
ffffc57e
ffffc629
00000afb
0000199e
000031b2
00002ec8
ffffe293
ffffcf2a
00002fa1
ffffcea5
ffffd837
ffffe737
ffffc285
00003b66
fffff5f7
fffff524
ffffcba2
ffffe59b
00003bd8
00002c0d
fffffe8d
00001d6a
0000224f
fffff5b9
000017e8
ffffd596
000007c4
00001072
ffffd5a4
ffffe89e
fffff5b3
fffff534
000025f0
00001b45
ffffd54b
0000238f
ffffe04f
ffffe77d
ffffe0d5
ffffdf29
000018c1
fffffaf4
fffff12c
00000aca
00003fec
00003b11
00003c30
0000376a
0000224a
ffffd643
000023ce
fffff154
00003cb5
fffff2d1
fffff3ea
000034c2
fffffae6
000011a6
000031c8
00000e5a
00003c20
ffffde35
00003200
00002a2b
00000e05
0000332d
0000294e
ffffe8c8
00000f3e
ffffddb6
000004a2
00001335
fffff592
00003b1d
ffffd74c
ffffe3ad
00001358
000031f8
ffffc0be
ffffee48
0000368a
fffffa48
ffffdee7
ffffe04f
ffffea8b
0000243b
ffffd717
00000046
00002804
00003727
00000911
ffffd17a
fffff276
00001a97
ffffd713
fffff885
ffffff87
00002e17
000054f7
fffff70d
00001a3e
ffffe7c2
00003598
00000193
ffffe50a
ffffcc76
ffffd7ad
fffff1ca
ffffd65a
ffffbefe
fffff6dc
000023de
000033db
ffffd745
00001e03
0000046f
000002ec
00002f98
0000278b
00001c7a
ffffe2aa
00002f17
00000871
00004ec0
00002c8e
00000305
00000667
00005497
000011a5
00002147
00003a36
00001389
00002df9
0000341e
00000dbf
ffffc6a6
000027bf
00003238
fffffb23
fffffa18
000030cf
ffffeea1
ffffe78d
00001a56
0000067f
0000015f
00000a02
ffffc806
00004014
00002dd7
fffff876
00002120
00000730
000037b2
0000114a
0000427b
000058bc
fffff50a
00003846
ffffeaa0
000000a2
00000551
000004b3
0000153a
fffff243
000004eb
ffffdc27
ffffe095
000009a3
fffffac4
ffffd555
ffffc8ec
ffffe90e
ffffca19
00003332
00000631
fffff310
ffffe8c6
ffffd65a
00000650
ffffe190
00002dfa
ffffea1d
ffffeb7a
ffffe988
ffffdca6
ffffe5a9
00003879
fffffbac
000009df
00003269
ffffec13
00000f2e
000027f7
ffffe93c
00000ff1
00002905
000033bc
00000f9d
ffffd2e8
0000355e
00002756
fffff2f9
00000137
00003966
0000219c
ffffef0a
000020a4
00001927
00003527
000000c3
00001422
00003600
00003af0
00002572
00001188
00001506
ffffe407
000027cc
000018bc
00002d1c
ffffc69b
00001ec0
00001d25
000007e6
00002cdf
00000d14
ffffe31d
0000198b
000009fc
ffffc224
00001005
000017d3
0000205f
00002ad0
00002c6b
00003269
ffffd11a
00001813
0000236f
ffffcc80
fffff827
fffff81f
ffffdb73
ffffcf2f
0000397c
ffffca1c
fffffac9
00003e77
000033f4
000026fa
fffff48d
00002dc7
00003e26
00003542
ffffdfdb
00003e4c
fffffb9f
fffff3eb
ffffce25
00000c8d
ffffce13
ffffd105
ffffd18b
00000249
fffff169
fffff99c
00000fe5
ffffd540
00001dfd
00001f96
ffffd13d
0000343e
ffffd91f
00001a8a
0000202a
000015db
ffffdc27
00000035
fffffa92
ffffce44
ffffe689
0000265e
ffffe5dd
ffffdaeb
ffffe066
ffffd824
00000f84
ffffcedf
fffffdf1
00000d2c
ffffc69b
00001066
00002c39
00002ee9
00000306
000019d5
ffffed56
00000f25
fffff3a4
ffffe4d8
ffffdf87
0000080f
00002dda
ffffef7c
fffff26e
fffff8a0
ffffce61
00002a1a
ffffdb32
fffff176
fffff629
ffffdb4a
ffffd9e5
fffffa2c
ffffc89c
ffffe5dd
ffffd90c
000011cd
000037c5
fffff9ef
000033e7
00000619
000031b8
00000cd4
ffffbb4d
fffff7d0
ffffb4e7
000001e1
00001d81
ffffeedd
00001e63
000023c2
00002643
fffffea4
ffffda96
fffff203
000028f4
ffffca08
ffffdace
00002df3
ffffbf5a
ffffe547
ffffe365
ffffde79
ffffd4ff
ffffcf9c
ffffd1fb
ffffdadb
00004fcd
00000af3
000056cd
00003476
fffff897
ffffc29a
000020fe
00000d65
00000cc1
ffffb3c0
000034ea
0000451b
ffffe2a6
ffffc281
00001a89
00001c65
ffffce2e
00003aa0
ffffcd44
00002031
ffffff30
00000fc5
ffffd81c
ffffefbc
ffffc3aa
000010ef
00001a7b
00002a1c
00001cf9
00001dca
0000140a
fffff220
ffffc7e2
000022d8
ffffb330
ffffe9f3
00000fe6
00001b52
ffffc76c
ffffcb20
00001c58
ffffdd80
fffff48e
00003a6a
ffffcbf3
ffffd5da
00003844
000004fd
ffffc5c5
000020ab
0000285a
ffffcce3
00000ab7
00001111
00002779
00002031
000033e6
000000a3
fffff9bc
00002d41
fffff293
ffffb2c2
ffffddfe
ffffdb70
ffffe444
00002c88
0000175c
000022a5
00001a1a
000025ad
0000096a
00003870
ffffe456
00001edc
00000fad
ffffd72c
ffffe5b8
ffffd909
ffffd8a8
00001df9
ffffe2d2
000011d5
ffffe1de
ffffe23a
00001f16
00003387
ffffc687
ffffd491
ffffc4cc
fffffe55
00001700
00000e07
000023b8
0000278a
fffffed4
000044b4
00000250
00003bd8
ffffeb54
ffffd451
00000a99
fffff396
00000c09
ffffccef
ffffde5c
fffffb67
000026cb
fffffa01
000022eb
fffffa3b
000005fd
0000015e
fffffb2d
000029a1
ffffd533
ffffef42
fffff4b9
fffff2cb
ffffd6da
ffffe62c
000020b9
00000e89
ffffd745
fffffe0d
ffffd4cb
00000221
ffffd536
ffffdffd
ffffdb16
fffff8bb
ffffc55d
fffff816
000010df
000029b3
ffffd704
00002c0e
ffffd959
000035f5
ffffd726
000044dc
000027fa
00000cf0
ffffe2ad
ffffe737
00000667
fffff450
00003e88
ffffff0b
fffffd4a
00002fae
00000733
ffffff5c
000019c1
ffffda2f
fffff8d6
ffffde8c
ffffedfb
ffffe919
ffffd224
0000309d
00001ab9
ffffe09e
00001580
000016f4
fffff25c
000034f2
00002475
000041f7
ffffdc9d
00000c4c
fffff21e
fffffcd4
000029f2
00003b16
ffffe10c
00004a6a
00001ecd
000026d2
fffffb4e
00001051
00002696
00001551
00001966
ffffc453
00000219
ffffc496
000004c7
ffffcf5f
00000b49
fffffe40
00005248
ffffe75c
00003b95
0000522b
00000ad0
fffff41b
fffff291
fffff62f
fffff878
00001a7d
00001bc7
00000d9e
0000340f
00001a68
00000952
000022f0
ffffe501
00000f2b
00001499
ffffc332
ffffd7b5
ffffea1d
ffffd8b0
ffffd5fd
ffffeea8
ffffd284
00002cf9
fffff734
ffffd826
fffffc62
00003777
0000440b
000009a9
00000360
00003e43
00003730
00003e4b
00003189
0000321a
ffffea4a
0000317d
00000968
ffffec93
00003a36
000044cd
ffffd233
fffffa9c
ffffe1c1
ffffebbc
fffffeee
00002931
0000162e
ffffdbdc
000006f6
000010f2
00002826
fffffa2c
00001dae
00003bc7
00002cd7
000029b9
00004f9b
ffffe7a4
0000156f
fffff0d6
00001644
ffffe8a0
00002899
ffffda96
00002b1d
ffffd3d3
ffffcacc
ffffdfd3
ffffe5ed
ffffde27
0000228d
ffffd589
fffffc25
00002cdb
00002a85
00003421
00003f04
ffffe9f0
ffffecf9
fffff755
ffffe674
ffffce80
000018f6
00001a58
00003054
000030fb
ffffee40
00003b05
000045eb
ffffeb2f
00003361
0000334e
00002588
0000011a
00003e3f
ffffe370
00003423
fffff620
ffffd6e8
00001c52
00002fe8
ffffd3bd
ffffe9b1
ffffdaab
ffffd0c0
ffffc994
fffffc3b
0000300e
000009ed
fffff4cf
fffffa62
00001876
00000fb0
00003b3f
ffffd180
ffffe112
00000e6a
fffffa13
ffffcf1e
fffff907
000035e6
ffffcad9
00000632
ffffe868
ffffd418
fffff391
ffffdf76
ffffd329
fffff807
00000160
00001772
00002d17
fffffed0
ffffda3f
00003249
000014ee
ffffedfd
ffffdd30
fffff3a8
ffffb63b
fffffc1b
fffffaa0
000028f2
ffffee50
000009b3
00001606
ffffdac1
000037d4
ffffdb2b
fffff473
00000c54
ffffd22a
ffffbff0
00001873
ffffcd2e
ffffeaf5
0000339d
00002dcb
ffffe72b
ffffde8b
ffffd0f2
fffffc89
ffffce50
fffff563
fffffdd3
fffffa2d
ffffdab6
ffffc260
ffffe38e
fffffa9a
fffff0c8
ffffe072
ffffc12a
ffffd164
fffff193
0000173a
ffffcef0
ffffc76e
ffffc61b
ffffde11
000030f9
ffffc4e0
ffffc74e
fffffc5f
fffffc5e
ffffdbb7
00001828
00000b96
ffffce6a
fffff465
fffff3eb
ffffc917
ffffff4e
00003aca
0000371a
ffffc567
000038fd
ffffc84c
0000377d
0000167b
00002b28
ffffd31a
00000145
00000a26
000026f7
000004eb
fffffcab
fffff078
ffffdc74
00001907
ffffdbe8
00000002
ffffe0d5
00000000
00000000
00000000
00000000
00000000
00000000
00000000
00000000
00000000
00000000
00000000
00000000
00000000
00000000
00000000
00000000
00000000
00000000
00000000
00000000