00000000
00000000
00000000
00000000
00000000
00000000
00000000
00000000
00000000
00000000
00000000
00000000
00000000
00000000
00000000
00000000
00000000
00000000
00000000
00000000
fffff129
00000a7f
ffffff04
00000e9a
ffffced4
ffffedb3
00001158
00001b26
fffffe0d
ffffd053
0000159a
00003513
ffffe940
ffffdad9
00003953
0000018f
0000373b
000028b7
00002a6f
00003df3
0000245f
000005fa
ffffe648
000007f3
ffffc37e
00003855
fffff0b4
fffffc19
ffffc4b9
ffffe16c
00001f3c
fffff785
ffffe4e0
ffffd127
000024b5
fffff2a2
000007e0
ffffd913
00003ed6
fffffcdf
ffffec4a
000004a6
ffffe25a
ffffdc1f
00000ade
000028f8
fffffa1c
00000059
ffffc764
000010e3
ffffdeed
ffffd3c6
ffffea4e
0000004e
00003b17
0000353e
ffffe636
00002b21
00001e15
00002dee
00003894
ffffd4fa
00000fc8
00002afb
fffff69e
ffffd517
fffff6a6
00001b91
00002769
000037a8
ffffe31b
ffffd926
00002ba0
00001175
ffffd94a
00000998
ffffc4a0
00003f52
fffff1fb
000037f9
0000322f
00002f60
00000195
ffffe4ff
ffffc31b
ffffd543
fffff379
00002c48
000031d2
000032c8
ffffe40a
ffffc336
00000bb7
000001c3
00001ea9
ffffcb3a
00003080
ffffdfe7
00003be0
00003a10
000017ed
ffffcb8b
00003d47
000038fc
00003e27
ffffe137
ffffc082
ffffe89a
fffffa4d
ffffd968
000036e4
ffffe5d2
00001b02
fffff79b
00000682
fffffdd1
ffffe08f
00000423
ffffd7d3
00001e39
00003e83
ffffd60d
ffffef3e
000033a2
00001aad
fffff710
00001009
000009af
00003027
0000187d
ffffd78a
fffffb97
000021fc
ffffc5f8
00003c9e
fffff695
ffffd2a8
00002b2b
ffffcf6e
00003385
ffffe12b
fffff863
000035ac
0000284a
fffff0e6
fffff431
000001bf
00001a84
ffffc959
000024bd
ffffeacd
ffffc826
ffffea11
000016b3
ffffd19d
00003b48
fffff2bf
ffffc04f
ffffe2b6
0000126e
ffffd978
fffffd6f
ffffc55c
ffffefe3
fffffbc1
00002bc8
000023bf
ffffdbee
00002742
fffff6a1
fffff8aa
000025dc
00001a93
000026d6
ffffc5e3
00003300
00000886
ffffcb1d
00000bd1
00003813
00000094
00002906
00000853
ffffd81f
ffffd056
ffffe64b
00000ca0
000027ea
0000247a
00002d93
00001a14
ffffdc47
ffffff32
ffffe1dd
00003797
000007c8
00001588
ffffcd8d
ffffc083
fffff2ba
00002e2f
fffff245
ffffe5b4
000000f2
ffffe5d9
00000004
ffffcd84
000018ae
00000e26
ffffcf3a
00001a77
ffffc856
00003553
ffffe71e
ffffd49a
ffffd5db
000015f7
fffffca3
ffffd236
ffffd9fa
ffffef88
fffff283
00000438
00001761
fffff86f
000027cd
ffffd24c
ffffdb51
fffff7cc
000016b0
ffffdf8e
fffff56e
fffffa8d
ffffe33c
ffffcebd
00002aac
ffffbb6f
00002a68
ffffda40
00000822
0000250a
ffffd8df
fffff75f
fffff011
ffffed35
000039bb
0000214d
ffffd4e5
fffff66c
00000970
00001fa3
ffffff48
00001ba1
0000070a
fffff8b6
00000a04
00001e73
00002aec
ffffd626
ffffbf5f
0000254e
ffffe662
ffffe49d
0000324d
ffffd247
ffffe167
000025d1
fffffdca
000002ee
0000253f
00001df5
000028b6
000026be
000019d4
ffffe970
ffffd99e
00004374
ffffec2f
ffffd08d
ffffd2b2
ffffd990
ffffc2c8
0000155e
ffffe78f
000028f3
ffffe948
0000121a
00002aa1
ffffbdbd
ffffce51
fffff162
000015c7
000008d2
0000396e
000002eb
00000a38
00004568
ffffcbb6
0000338d
ffffe7c3
000023b6
00001bf0
fffff6a6
ffffe6e6
00000765
00001d21
000036bf
ffffe6d9
fffff2ce
00002c03
ffffe4c6
00001448
ffffdd44
ffffe6e1
00003624
000011a9
000002c3
ffffc62c
fffff1c4
fffff699
00001688
00000d13
00002f90
000038f5
ffffcbdc
00000ccd
ffffdcb4
fffffd2a
ffffef30
ffffcde8
00000f4c
fffff3c2
ffffe7ac
ffffdf48
ffffe51a
00001709
fffffba1
ffffd614
0000151e
ffffe1b9
0000056f
00003893
ffffd288
ffffc000
0000088c
fffff25a
ffffeecc
ffffe559
ffffda6a
00002e7b
fffff986
fffff6e5
ffffcebb
00000de0
ffffc011
00000a31
ffffb9a2
0000029c
00001b92
ffffbe88
ffffd3df
ffffc9cb
ffffe438
00000562
ffffe692
fffff082
0000285f
000035f9
00001dbd
00001929
ffffe799
fffffe2e
0000021e
000030ce
00001cce
00002c20
000032f6
ffffdd7c
00002641
fffff173
00000a22
ffffda54
ffffdb73
ffffbc33
ffffe795
00002632
ffffe005
ffffcebf
000008f6
000038ee
00003f02
00002f76
fffff314
00000e09
0000011c
00001dc6
ffffd57f
ffffc450
fffff9de
00002f95
ffffd213
0000123d
ffffcfb7
ffffdd81
000044dc
ffffd291
ffffd8a4
0000055d
00000acd
ffffe754
0000125b
000005d5
0000046a
ffffecbe
ffffbd55
fffffbc6
ffffd81d
fffff5d6
ffffdb02
00002a59
ffffd74c
fffffec4
00000464
fffffd3d
ffffcc80
00001366
ffffe97e
fffff4bf
ffffd773
000021b6
00002099
0000104c
00003d2b
fffff58e
ffffd485
ffffcbfd
ffffdf5d
000024ec
ffffe277
fffffdf7
fffff032
ffffd08f
00001178
00002f02
ffffc35e
fffffe19
0000171e
fffffc88
ffffd730
ffffcd7e
0000022c
ffffef45
ffffef91
00000732
ffffe58c
ffffcbd7
ffffb495
00001ca6
ffffd46a
00001659
00001eba
fffff9f8
00000163
000040e1
ffffdc2a
ffffd361
00000e9b
00003193
ffffc7bf
ffffcf1c
ffffd85c
fffffb04
000000cc
ffffdd00
000038cb
00002cab
00003906
00002186
fffff828
00002282
ffffd369
00001aaf
ffffcc25
ffffea30
ffffba92
000002c2
fffff654
ffffe135
ffffe53a
0000411e
00002fca
00001029
ffffd326
000020b4
ffffc351
ffffdca8
fffff9fc
ffffe72d
ffffdfc6
000014c6
fffff3c3
00002fd3
00000d17
ffffc8fd
00001123
000030cb
000025b3
000040d6
0000322a
fffff1ce
00004191
ffffea99
00002c4e
ffffc61f
00000107
fffffaf8
fffffd4f
00000c43
ffffebe4
fffff49c
ffffdcce
ffffda5a
fffffc3c
fffffbf3
00002ebe
fffff099
fffffa36
ffffda43
00002596
ffffcf77
00000a61
00001065
00001f74
ffffc27f
0000260d
00000ca2
ffffdfdf
00002980
00001137
00002ae4
ffffe702
00002e12
000014cd
ffffe1b8
ffffdd79
00003740
000008d8
00001021
000005fb
0000393b
00000656
ffffd5b5
ffffc0e9
ffffd2ab
ffffce63
00001b23
00002136
00003efc
00000378
000037d4
fffffd16
ffffcb88
ffffcd91
ffffc66a
00001f49
ffffdb63
0000448b
0000486e
fffff8e2
00003058
00004b4c
fffffe71
0000332e
00003b25
00003f74
fffff6f9
fffffd6e
ffffe3af
ffffc66b
000026bb
ffffdf1b
00000620
000015b4
00002127
00001483
000011af
ffffc811
ffffd9c4
fffffb89
ffffdd32
00002a04
00000b8a
ffffd1ba
ffffd595
00002294
000009ed
00001ef5
ffffe02b
00000940
00002a7e
ffffe868
000037ad
ffffcfc8
00000c37
00002350
ffffddac
fffffa92
00002173
ffffcb46
00003982
00002fcc
fffff963
ffffd5cb
00003b5c
ffffda81
ffffcca5
00002695
0000355b
ffffef74
ffffc5a2
ffffd21c
000013b7
ffffd899
00000abb
00002b79
ffffd973
ffffecd2
ffffbcea
ffffe6bf
ffffd939
ffffdd83
ffffd7c3
ffffcd44
ffffc6ed
00001a42
000010b0
00003a37
fffff548
00002f29
fffffec4
0000017c
000035f1
00002b33
ffffc7d7
ffffef70
ffffcb23
000024ba
fffffbd5
000015d2
0000163e
fffff022
ffffed46
000033d0
ffffe562
ffffd119
00002219
00000c62
fffff3a1
0000103e
00001b6e
000022a6
fffff6bb
000005e4
ffffc32d
ffffc4a3
00001598
00003009
00003a88
000019f5
fffffb65
ffffec36
000020f3
00001b17
ffffc6df
00001b79
00000bb2
00001495
0000260f
00003d6e
ffffbff1
00001be1
ffffc0bd
0000357a
ffffea69
ffffeb6a
00000749
00002b1a
fffff52c
ffffccc1
000030ab
000033c4
000008bc
ffffcc9f
ffffeff7
000019f0
fffff65a
ffffe2c2
ffffc5ed
ffffc0ec
ffffd29c
ffffc6c5
ffffce1a
000030c4
00001bd5
ffffc40a
ffffcee5
00000079
00001a18
000023b3
ffffec81
ffffdc96
fffff649
000037db
0000035f
000039ce
ffffc217
00002eac
ffffe6f3
00000541
000012b7
000004b9
000005b5
ffffe148
00000861
ffffc2d4
00000d0c
fffff4f0
00000f89
00000c33
ffffc7c5
ffffcf36
ffffec31
00001911
ffffc16f
00002ebd
ffffc715
0000287c
ffffe497
00002bfd
ffffde4b
ffffd3c6
ffffe766
fffffda3
000029ec
00001042
ffffe479
00000635
ffffdc60
ffffc3e5
ffffef1d
00001fa6
00002728
ffffe9a8
ffffded6
ffffe813
00000cd7
00001483
00003c82
0000123f
00001d7e
000036d1
00000914
fffff8af
000020e7
ffffd825
ffffe26c
ffffdfab
00003499
ffffdb02
00003af9
000029ef
ffffde3f
00001db6
0000129e
00000a36
00000c33
000014dc
fffff64e
00003033
ffffc676
000011ef
ffffe290
0000121d
ffffd91d
00000000
00000000
00000000
00000000
00000000
00000000
00000000
00000000
00000000
00000000
00000000
00000000
00000000
00000000
00000000
00000000
00000000
00000000
00000000
00000000