00000000
00000000
00000000
00000000
00000000
00000000
00000000
00000000
00000000
00000000
00000000
00000000
00000000
00000000
00000000
00000000
00000000
00000000
00000000
00000000
000038e8
ffffe1ff
00001c95
ffffe856
00001045
ffffe492
fffff699
fffff650
fffffabd
00000e4b
fffff97c
000001f3
00000353
00002a59
000005d2
fffff58a
000039ce
ffffcb49
00003188
0000028b
00001cc5
00003ae5
000005ab
00002639
000014da
ffffce58
00001a07
00003840
ffffc874
00001e85
000003fa
000013f7
fffffd4a
ffffe22f
ffffdf93
00000771
0000134a
00001122
fffff830
0000059e
fffffcbd
ffffc413
ffffeeea
fffffb58
ffffc739
00002bea
00003c6c
000026d6
fffffcde
00002992
00001661
00000e8b
00000c7d
ffffd358
00001894
00000613
000017f4
00003815
00003e51
00003ba8
ffffdfb0
00001c91
000003e9
ffffedb1
000007d9
00002e2c
ffffd652
ffffe658
00002969
ffffdcd1
00000fd1
ffffcb32
000008aa
ffffd121
000021bc
fffffbb3
000006b1
000023ed
00000c8e
00001b02
ffffc60c
00003963
00001ad9
ffffe2af
000006e3
00000f46
00003425
00000b77
fffff182
ffffefc6
000010e0
0000322a
fffff96e
ffffe094
ffffdc6a
ffffdafb
ffffd93c
0000454e
fffff04f
00001c82
ffffdd02
000028c0
fffff960
00003c1b
00003b69
ffffd132
ffffffd9
ffffd066
00000036
00000200
ffffc6f7
000003a3
ffffc791
000000ee
00003e8e
00000e79
ffffe62f
000022a8
ffffcf8d
fffffedc
ffffdb4c
ffffd043
ffffffa0
00004b08
fffff6de
ffffded7
00003148
00002fdd
ffffed23
00001163
00003272
0000310f
ffffdcad
fffffe57
ffffe229
fffff1de
000017f5
00000c41
ffffe1bd
fffff21a
fffff283
000015ae
000016e3
000020ca
00002e42
000030da
fffff592
00001b08
000036a2
00001c48
00005598
ffffe320
ffffeb7c
00002de8
0000096e
0000369c
ffffd73f
fffffbe5
00001f03
ffffea8a
000019d3
ffffd995
00001218
0000380e
00000178
ffffe2a1
000003f2
ffffeec8
00002beb
00000b88
ffffcca6
ffffed12
ffffd043
ffffdd61
fffff76f
fffff3d3
00003852
fffffd8b
00003088
00004b31
fffff227
00002a75
000034ce
fffff69e
00002e0c
ffffdec9
00001840
0000366b
0000405d
ffffeef5
000011e5
00002eb6
ffffe011
000018f1
ffffc369
000038cd
00003237
000030eb
00000ac6
00003ca2
000032be
000028a7
fffff591
00000f50
00000aa6
00003f0d
ffffd93b
00000062
00000bc8
000018aa
ffffeba1
00000620
fffff0ea
00000752
00000478
000002cb
ffffcf61
ffffcaa2
ffffdc9b
00001a4f
ffffcb18
ffffcddd
ffffd6e5
000011f7
ffffeeb9
0000223c
fffff0ad
fffffb2b
ffffc9d8
000005eb
000022c3
00003d07
ffffd072
ffffde0a
0000104f
fffffb1d
ffffee20
00001115
00003561
fffffa06
00001bd5
ffffdf7e
00001b6e
00002280
fffff872
00001676
00002757
ffffd920
00002248
00001694
ffffd779
000037f8
ffffd43d
000037de
00002f1b
fffff53f
000009a3
ffffec09
00001939
00001143
00002003
ffffc4ea
ffffd256
ffffe284
ffffd611
ffffe63a
00001dc2
ffffe862
fffff522
00002791
ffffd605
ffffde0e
ffffd7ca
ffffe358
0000091e
00002e16
000029b8
00001187
fffff774
00001604
000038ee
ffffd5f9
000013a7
000013f0
00002125
ffffdeed
ffffe305
ffffc1ff
ffffbd7d
ffffe607
ffffd08a
ffffbd63
ffffeebe
ffffbe66
00003a51
0000125b
fffffb79
00002533
00002e14
00000174
ffffe50d
ffffdf49
ffffc88f
ffffd5d6
00003267
ffffc658
ffffd0f6
ffffd817
ffffe430
ffffeb6e
fffffdb6
ffffd37a
00002340
0000291f
000003ff
00001e16
00000e1c
ffffb81c
000028ce
ffffe03f
0000114b
ffffe52b
0000060c
00004841
ffffdf91
000001f4
fffff671
0000228f
ffffdbd2
ffffc393
000004e1
00002273
00003488
ffffe4c3
ffffea70
000018b3
ffffc6e5
0000309c
ffffff63
00002012
ffffd1e7
ffffec3c
ffffd6cd
00002431
ffffc2ce
ffffc752
ffffc846
000014e0
ffffe435
00002d59
ffffd249
ffffd93a
00003bf3
ffffdc6a
ffffd69a
ffffd89f
00000914
ffffd1c7
ffffcb53
ffffd37a
00000be0
ffffefa0
ffffdfc4
00001295
00003f33
ffffe22c
00001959
ffffe0a0
00002ac0
ffffcd90
ffffef0c
ffffc8fe
fffff3d9
000003e2
00002fdc
ffffd012
fffff43c
ffffe5dc
000046a7
ffffe24c
fffffe30
000011e8
00003fc7
000034c5
ffffe41a
fffffb87
fffff223
ffffed81
ffffc8c3
ffffe3eb
00000d6c
ffffe5b4
0000238d
00003a4d
00002d1c
ffffc097
00000312
ffffe596
0000036f
ffffd67a
000036ea
000031fc
0000064b
00003abc
00000899
ffffd3ac
000015dc
ffffe9ff
0000066c
00003959
ffffd84c
fffff96f
ffffe986
0000116b
00002e4e
00000c80
ffffc79b
00003e23
ffffde4e
ffffc6ca
ffffce8d
00000b4a
000001c0
00003de8
ffffca35
ffffeb1e
ffffc0a0
0000170e
ffffd3b8
000021b5
00000f94
00002b26
0000262c
000035ee
ffffe4e8
00001850
ffffd0af
00003a7c
00003eeb
ffffde1d
ffffdf5c
ffffeb8d
fffff9b2
ffffca08
0000083c
00000a8f
ffffcfa7
000034c1
00003494
ffffca59
000018b7
00000389
ffffc2de
ffffed10
0000142e
fffffab7
0000101e
000019a0
ffffc1fb
ffffb3dc
00001f6d
ffffbb63
ffffddec
0000052a
0000258c
00000357
000014bf
0000096e
ffffddba
000001c4
000044e2
ffffdb43
ffffc909
00003390
ffffe4d4
ffffc8e3
000028db
00002e56
00000cf0
00001337
ffffe4bd
00002450
00002fa2
00002027
fffffc15
000017ba
ffffd882
ffffbe79
ffffd625
ffffbee7
000014c1
ffffe52a
ffffe8dc
000008ec
000014fd
00002a8f
0000485d
ffffedf5
ffffe7b0
ffffd956
ffffcbf8
00001db9
00000d9b
fffffd16
ffffe12b
ffffecf6
ffffe4fd
00003dac
00003de4
00000622
00003424
0000321a
ffffbef0
fffff21c
ffffdb24
ffffc4ce
0000297b
ffffdaf3
ffffda14
ffffceff
00002ff5
0000177f
0000098e
ffffcf5e
00000d1c
00001138
00000ec6
00004154
000001c5
00003e5b
ffffcff7
00001222
ffffdae5
ffffc7b4
0000116c
00002920
ffffffc2
00002e55
ffffd749
ffffee7a
00003010
ffffd6d0
00001a47
fffff282
fffff99b
fffffae2
fffff18c
fffff979
000003d4
000027c4
fffff1ea
00004701
0000339c
000031df
00000fc0
00003191
00000088
000038bb
00001826
fffffad7
fffff770
000000ce
00003d71
0000400c
ffffcf7a
0000186e
fffff005
ffffda27
fffff2ec
000022a5
fffff26a
ffffd0dd
ffffec29
00003ae1
ffffe282
ffffea2c
00001814
000021eb
00003c7c
00000a3a
00002159
fffff5ef
ffffe55b
00000a30
ffffc667
000032d7
fffffa60
ffffe2b5
00003f6a
00001ca3
ffffeb95
00003de4
000011af
00001500
00000df0
0000577e
0000209a
ffffce89
00003e0e
ffffd13d
ffffce4d
00003c3c
0000332c
fffff6e1
00004551
00000867
ffffdf69
00003860
000011bf
fffff023
fffff08b
ffffebaf
00001a9b
ffffef36
fffff5e8
00000d5b
ffffc652
ffffe13e
ffffc33f
ffffd2b7
00004710
ffffde25
00004fcc
00001b6b
ffffef42
ffffe68b
000019d2
000038a9
00001c17
fffffa4a
ffffce32
00002332
fffffc7e
0000196c
00002c2e
00003df0
00001060
00002250
0000057e
00000b95
ffffe390
ffffc0d5
fffff320
ffffcf01
fffff65a
ffffdf2d
ffffe58f
fffff619
00003c1b
ffffe0fe
00000e82
00000bac
ffffdc50
0000023b
000002a0
000016a2
ffffcfc8
000028c8
ffffbdb6
00000053
00000213
ffffbbe3
ffffcd82
ffffd308
ffffdd98
ffffd1fa
000037d8
ffffe68f
ffffd4eb
ffffc576
ffffd4c7
00000aa2
00001eb6
00002484
00003154
00003189
fffffa1e
00001747
fffff44a
ffffdb03
ffffdd89
00004966
ffffe896
000029af
00000383
000026bc
fffff685
ffffcbc0
fffff0f3
000022a9
ffffeaf4
ffffe8bb
ffffe4da
000008ac
0000343e
000011d3
00001cc2
00000819
00003c99
fffff75d
000005c6
fffff438
ffffe7d9
ffffd533
ffffdbce
00001dcb
ffffc254
ffffe157
00002a81
0000148c
ffffd12e
00000e5f
ffffc996
0000320d
fffffda2
ffffe3a6
ffffcd52
000027f4
000013e6
00002216
000033c0
fffffa9f
0000131e
00000a1c
00003a67
ffffe92d
ffffcc66
00001392
fffffdfd
ffffcf0d
00001dcd
00000dc4
00003c15
fffff3b9
00001ac3
ffffc58f
fffff1ed
00000c37
ffffd503
ffffe46d
0000305c
00001d99
00000413
00002edb
000025b0
ffffd1b0
00001d4d
000025cb
ffffdee0
00001eba
00002627
00001ab0
ffffc20e
ffffef91
00003f52
0000347b
ffffeb8f
ffffcd36
ffffd281
00001a6c
ffffeb54
00000bf0
00000006
ffffeac9
ffffc25c
ffffe552
ffffc372
00003a46
ffffcf3d
000013aa
000011db
ffffdd86
00002244
00000889
ffffdf76
00003e1f
ffffcd0a
000019c4
0000353e
000014a3
00001300
ffffc755
000012e4
ffffd16d
00000000
00000000
00000000
00000000
00000000
00000000
00000000
00000000
00000000
00000000
00000000
00000000
00000000
00000000
00000000
00000000
00000000
00000000
00000000
00000000