00000000
00000000
00000000
00000000
00000000
00000000
00000000
00000000
00000000
00000000
00000000
00000000
00000000
00000000
00000000
00000000
00000000
00000000
00000000
00000000
ffffe790
ffffdeca
fffff638
00000c8f
00000be1
ffffea05
ffffc93d
00001680
ffffe144
ffffd4ca
000017cc
00001b74
ffffced9
ffffde1e
00003541
ffffec17
00003639
00003c20
00001c25
00002260
ffffdbc4
ffffd909
0000362d
00001c5f
00003908
00001fa9
000038e8
ffffd7f8
ffffe95c
000022ca
0000335b
00002c9d
ffffcb3a
fffff843
fffff47f
000029e3
00003dc7
0000257a
ffffc3a3
ffffd65a
ffffc997
00000c40
ffffcfda
00000857
000026e0
000029e9
00002b80
00003d5a
ffffe2eb
00002c0f
fffffd0a
fffff5b8
ffffe0e7
ffffd28d
fffff6da
ffffd592
00003b2e
000012fe
00001f66
ffffe458
000037ae
00002e8c
ffffe1fd
ffffc896
0000362a
fffffe2b
ffffe042
fffff3f3
00003658
fffffad1
ffffe42f
ffffe770
fffffafa
00002232
000025c5
00000522
ffffe48c
00002f24
00003f24
ffffc4c5
000033c6
ffffe582
00003aac
000024f2
ffffe92b
ffffcc2c
ffffd065
00001f6b
ffffd9d4
ffffd274
000029db
ffffd2db
00000a8f
ffffdb4f
ffffcf78
000031b0
00003c1d
00000fca
ffffd853
ffffdf79
ffffcc2e
00000e7a
ffffed54
ffffe35d
ffffd450
00000306
ffffe7a9
fffff13b
ffffc9cd
ffffe095
000019f3
00003d62
ffffcec7
fffff03e
000026d9
00002e1a
00001429
000031c1
ffffcea7
00000ee1
0000176e
ffffd48c
ffffee37
00002f4a
0000137e
000019ed
000002a4
00001846
000013f2
00001508
ffffed4b
0000372b
000025f3
000008ed
00000da5
ffffc41b
000027fb
000016c8
0000075a
fffffaa0
ffffc053
ffffdf1e
ffffe95c
ffffe730
00002e99
000003fc
ffffc888
ffffd7c5
00000abc
fffff02f
00003043
ffffee2d
ffffee57
00003146
00000607
ffffe6ae
fffffedd
fffffaee
ffffba41
00000c2f
ffffeb63
fffff0a9
00000fd7
00000d1d
ffffcd77
ffffe167
00002ef9
00003f37
fffffca3
00003787
0000170d
00000091
ffffdff4
000020b5
ffffcbe7
ffffd54a
00001e30
ffffe098
ffffc373
00003a5a
fffff0e2
00002b2e
00002d72
fffff4f2
fffff8b1
ffffefc9
fffffd1b
ffffe67d
fffffb3b
00001eff
ffffea31
ffffd870
ffffc13f
fffffc69
ffffdc14
00002f04
00003d6a
000015aa
00001f6c
ffffeede
00003892
ffffdc19
000002ef
000038f4
ffffe740
ffffe6b4
00000b8a
00003fe3
ffffe5ca
00002ae8
00001332
00002f73
ffffe0e3
00003074
00003aba
ffffcd3f
fffffe70
ffffef76
00000902
fffff085
fffffaa9
000034c8
000013f4
ffffc315
ffffd8de
000024d6
00000d63
000020f1
0000305a
000025d1
000005f2
00002f2a
000027e6
ffffd9e0
0000154b
000020f0
00000548
00005da6
000040b5
00001de3
00005387
00001a25
00003b40
fffff0ca
00000b20
00000010
ffffe311
00000c7e
ffffdc1c
ffffbb92
ffffe4e9
00001f72
ffffe6d0
ffffeb02
ffffea5d
0000078a
ffffd1f8
00003c86
0000400f
00002c7f
ffffe0ad
00000870
00000f97
00002283
fffff0a3
0000297e
00003ac8
00004444
0000061e
0000145d
0000068b
0000294a
ffffea57
00002cde
ffffd6d7
ffffecfd
ffffc9b2
00000a6c
00002f13
000016e1
0000090c
00003b5f
fffff8b3
00000d80
ffffd7d1
ffffe5d6
00001c59
00000bf9
ffffe0f1
ffffdd19
fffff682
ffffce72
ffffeb63
00002596
00000006
00005417
0000602c
00005616
fffff061
ffffea60
00002071
ffffe055
000033f5
fffffa17
000000eb
ffffd225
ffffc430
0000332a
ffffef9c
0000013e
ffffcb1c
00000a3f
ffffd9ef
ffffe958
fffffabe
000020eb
fffff031
00001c1e
fffffab2
fffffc0b
ffffd758
0000094f
00005c9e
0000662f
ffffeae2
00001e5d
00004993
000031f3
ffffcd07
000037e6
ffffdb96
ffffc271
ffffcca7
fffffff1
000035fc
00002ffc
00000b09
00002ec2
00003c1e
fffff975
fffff711
ffffd089
fffff1ff
ffffcc6b
ffffc6df
00000303
00000089
ffffdc1c
ffffbc68
ffffc81c
000017c9
fffff985
00002862
fffffc5a
0000137f
00002cc7
00004269
000009e7
0000036f
00001db1
00000ffc
00001e38
000011ef
ffffe724
ffffd16e
ffffffc2
ffffc9c4
00000421
00003bcf
ffffd91e
ffffeb33
00002bd6
ffffc956
fffff749
ffffa02a
ffffc6ba
ffffc977
000014de
000020a0
000037aa
00000712
00000ede
0000216a
00001cfe
ffffec1e
00003296
ffffbf03
00002901
000009f7
ffffd264
ffffe2c5
00001991
000009bb
00001cfe
fffff923
ffffdc66
0000177c
ffffd729
ffffc30d
00000296
ffffe140
ffffda8f
fffffdc5
ffff893d
00000531
ffffded6
000029e6
00000dcf
00002c8f
ffffee93
ffffe9e2
00003c7a
0000019f
00002ef1
00001c95
fffffa44
00001a82
00002b3f
ffffcfa0
ffffddff
00000925
00001f45
000025eb
ffffd125
00002f12
ffffce96
00001c8e
ffffe346
00000377
ffffd083
ffffda55
fffff145
ffffb8d8
00002300
000015d0
fffff54f
ffffdf79
00002b91
00001d70
ffffe445
ffffe73a
ffffed38
ffffe8cf
00000c90
ffffeee4
00000a5c
00002790
00000ce3
00002fd6
ffffcd98
00002c0a
ffffd260
00001602
ffffec71
ffffe473
fffff00a
00000685
ffffd631
ffffd26a
ffffe63c
fffffc77
000048fd
ffffe3fa
fffff036
00000786
00000770
00000769
00001e8c
00003350
ffffe18c
ffffeacd
fffffe98
ffffe600
000034e5
fffff77b
00000f35
00003a6a
fffff8c8
ffffd4b6
00000d0a
00000fe8
ffffc2e9
ffffd5c6
ffffd398
ffffc38b
ffffee7e
00002b0b
fffff4d3
ffffd237
0000487a
00002cd8
fffff7d8
00002a5f
000035e0
000017a2
ffffe1ad
00000ddc
00004222
000004ca
00001425
ffffc3d4
ffffc84d
0000134e
00002e46
00000639
ffffe912
00001e50
00000cf3
ffffff6d
fffff38c
fffff239
ffffd060
ffffcab5
000021c2
00001dfe
00001e23
00001600
ffffe1d0
00003262
ffffff6f
ffffd294
00001568
fffff0a4
000000a6
00002032
00000370
000015e9
fffffcce
00000e48
000001dc
fffff385
fffff77b
ffffea11
ffffc398
fffffe15
ffffeb07
00000ef3
000038d6
fffffed3
ffffcb4a
ffffc4b1
00001bf1
ffffbed5
fffff565
fffffecb
ffffec0b
ffffe896
fffff437
000022d0
ffffce22
ffffee8e
ffffdc56
00003c35
fffff3c9
0000128f
0000033d
ffffc8c5
00002e19
00001c92
00001218
ffffd860
ffffccb2
0000279b
0000086e
fffff2f2
ffffe84d
fffff00f
ffffd565
00000a18
ffffe6ca
000002ec
fffff376
ffffee86
00000049
00001d4e
ffffd66a
00000b0e
ffffd7b4
000003ac
fffff85e
ffffc39e
ffffe99c
ffffe989
00002709
00000c94
ffffc154
00002572
00000a96
000002e4
fffff1f3
fffff4fb
00001bd6
ffffe6bc
00003836
000042ef
fffff92b
00000b66
00001d4b
000009d7
00001b43
ffffeef4
fffff53a
fffff12c
000044a8
ffffe224
00001ec6
0000054b
00000643
00001f68
ffffe9da
00003587
ffffc3ce
00002a49
ffffdc1f
ffffc189
ffffdd80
ffffc358
00000e61
0000074f
fffff150
ffffd241
00001664
0000078d
ffffdfb9
00000021
fffffa11
ffffec5b
0000230c
fffff1a7
000003b9
000021a8
ffffe953
ffffd210
00002338
ffffce13
ffffcc9b
fffffc72
ffffe4d1
ffffd497
00000094
ffffddb5
00003fde
00002063
00001f8f
ffffc958
fffff961
000014a8
00002308
ffffedef
0000404e
00002cdc
00001010
00000be1
00002713
ffffe6c1
0000187e
ffffe712
ffffe0c5
ffffe9e0
00000147
000007ab
000002a2
00001a45
ffffeeb0
0000067f
ffffc95e
00002373
ffffc8bf
00002b78
00000371
000016d5
fffff245
ffffe173
00000c02
ffffc33d
00000e6c
0000320e
ffffe7c9
ffffe333
00004304
000008cc
000022d3
ffffee2b
000030fb
00002252
ffffe120
0000372c
ffffd71f
00001aad
00003480
fffffd12
ffffe02f
fffff920
fffffbef
ffffe625
ffffc983
00000828
000005df
000013c1
ffffcd9b
ffffdd50
ffffdf42
0000139c
ffffda9e
00001f4e
fffffae4
00003e39
00000965
000015bc
ffffe818
0000376f
fffff1f9
ffffe7ec
0000233b
000039ca
ffffe772
00000fed
0000309a
00002677
ffffcb53
00003c0d
fffff44f
ffffd88c
00001a02
ffffd1cb
ffffee15
00000489
ffffccac
00003c80
00000e55
ffffd51e
ffffebf6
00003002
000008aa
ffffdf0f
ffffd115
ffffcd02
ffffe01d
00001997
ffffefd9
000029bb
00001728
00001111
ffffddb8
fffffa7b
ffffdee5
00001914
00002b1d
ffffdd2f
ffffdac7
000034f3
00003e9f
ffffc5e1
00000d47
00001ef6
0000017d
00002885
ffffc2ea
ffffd120
ffffec99
000001de
ffffc7a7
00001831
00002785
ffffddbc
ffffcf41
0000281c
00003d30
ffffe77b
00002f22
ffffd48e
ffffc3e5
000030a4
000016c9
ffffcf38
ffffc700
ffffe03b
ffffc861
ffffdfde
00002da0
00003bc3
ffffe40c
00003896
ffffc2e9
00000000
00000000
00000000
00000000
00000000
00000000
00000000
00000000
00000000
00000000
00000000
00000000
00000000
00000000
00000000
00000000
00000000
00000000
00000000
00000000