00000000
00000000
00000000
00000000
00000000
00000000
00000000
00000000
00000000
00000000
00000000
00000000
00000000
00000000
00000000
00000000
00000000
00000000
00000000
00000000
fffff464
00003fc9
00002403
ffffe1f2
fffffd63
ffffd753
0000074e
00003a30
000035c5
ffffd99b
ffffc5a3
000017ca
000022e3
00001f2c
ffffe447
ffffddda
ffffff5f
000020d0
ffffce22
0000008e
ffffdc49
000008b6
000030f4
ffffd3a5
00003b24
00002732
000014ec
fffffee7
fffffa04
fffffb31
00002ebd
000014be
000010c0
ffffe4db
ffffee8e
00003f1a
ffffc20e
00002ee4
fffff001
ffffe446
ffffed9a
fffffe36
fffff5fc
00002867
fffff29e
ffffdaf7
0000112e
fffff3a2
00000247
0000359c
ffffcc77
ffffdef2
ffffc699
ffffdc61
0000267b
0000296c
ffffc2e9
00002a43
fffff32c
00001913
000035cd
00002712
fffff21e
ffffe4d9
ffffc0d2
ffffd594
000015f5
00000a5c
ffffc53a
ffffd7bd
ffffeb53
0000122f
00000512
000021e8
ffffc6b8
00001f2a
ffffd75f
fffff0cc
ffffcf38
ffffda71
fffff481
00000602
ffffcf9d
000039ba
ffffe603
00000e05
00001c81
00000169
ffffc909
0000213c
ffffd539
ffffc269
fffffefa
ffffe500
ffffe143
ffffd5c2
fffff1fe
fffff226
ffffc15f
fffff7f5
00003145
0000290d
ffffd92b
fffff3b2
fffffe0a
ffffd777
ffffc0c9
fffff9d9
0000310f
ffffcaf3
00003154
000034ec
ffffd497
ffffc1e4
000011ab
ffffe6bf
0000286b
000018c9
00000885
ffffdbd7
000036ce
fffffdf8
00001936
ffffd6c1
00002690
ffffee4d
fffff80f
00000cb7
ffffce52
ffffd725
00001ccd
0000353d
00003cab
ffffdcfd
00001589
ffffce04
ffffdd01
ffffe796
00002207
00000611
000039fc
ffffc1c3
00000be6
000037d9
00000a4a
00003975
ffffffdf
000019bb
ffffdac1
ffffd470
ffffea95
ffffdcf8
fffff46c
00000bfb
00001d18
ffffe814
ffffdd0a
00000e3d
000009a4
ffffd108
000001a8
0000122c
00001f55
0000198d
000008be
000033fa
00003c2f
00002cf2
00000986
00000412
000015a1
ffffd070
ffffe272
ffffdcbb
fffff009
00001926
fffffb13
000006f2
00000d12
ffffdd52
00003120
0000317b
000034d7
000018de
ffffd8a1
00000277
000031a7
00002e65
000019f8
00002055
00001936
0000376f
00004cbe
00000596
ffffce70
00003472
ffffd4d1
ffffc41b
ffffef60
00000bd0
ffffe224
fffff261
00001cbe
ffffe48d
fffffc70
ffffd77a
00000701
00003d2e
00000e20
fffff1d4
00005311
000042de
00002022
0000336f
000040c4
ffffe045
000002a1
fffffb8d
000011d9
00005956
ffffe840
ffffd831
00000810
fffff22f
ffffe3ac
ffffc60d
00001695
ffffd2cd
ffffc25a
ffffc9bf
000009d7
00000115
fffff858
00003847
00001f18
00003f72
00001a97
0000242c
000042ee
00005059
0000166e
0000485b
fffff4b3
fffff81d
00001014
fffff61e
ffffe32c
ffffde35
00002c7b
ffffe1d5
00001568
00000dda
ffffe7a7
ffffe055
ffffe39c
fffffcf1
00002810
ffffeb7d
ffffff34
000025ab
000022d0
000044d9
ffffe1a8
0000439e
fffff179
fffffc3c
ffffd50d
0000324c
00000cbb
0000102b
00002bd1
00002c2c
00000e39
00003b77
fffff50c
00003c06
000011c5
ffffcb4d
00002e5f
fffffd95
ffffeb2d
ffffdaf1
00001c87
00001ff7
00002b87
ffffee30
fffff895
00000a64
00001c58
000016d1
0000189a
000030e5
00005cec
ffffef86
00002c9b
ffffed58
fffffde5
00003893
ffffcaa3
fffffecb
0000228b
00000746
00001309
ffffe6e4
ffffef84
ffffc7a3
ffffcb94
00002412
ffffc8a2
00000856
00002d5e
ffffefb5
000018cc
ffffd946
fffff0e5
fffffb1b
000043cf
000014f1
fffff4bd
00005dd4
0000293e
00003a46
ffffbc8b
fffff2ea
000006b7
ffffe491
fffffecd
fffffb2e
ffffea24
ffffc31a
00000114
00001c92
000035d2
ffffe79a
00001303
ffffd152
00002c93
ffffd5d0
ffffdf9d
ffffead0
00002fff
fffff2a7
ffffe1ea
00002e36
ffffddd5
00004e48
0000415b
00004ade
00000ead
0000159b
ffffeaa2
fffff99e
ffffe4e7
ffffef94
fffff870
fffff1d3
00001603
0000266c
000034bc
000017ca
000036c5
fffffdbe
fffff293
00003765
ffffd956
0000327f
fffff4a7
000011e0
00000d84
000033fa
00001e80
00000f81
000052ef
000042df
00003dd7
ffffe490
00000882
00002c2e
ffffdccd
00001d9d
ffffdd47
00002acd
ffffd9f3
00000e43
000024bd
fffff73a
00003cd9
ffffeae8
fffff40d
00002f0d
ffffe20f
00002694
00003d1a
00000928
000000cc
00000829
ffffefb8
ffffe32a
ffffdfb2
0000064e
00000303
00003db2
ffffdb21
00003c23
ffffd298
ffffca0a
ffffc54f
00000c70
0000078d
fffffbb1
ffffed78
000033bb
00001d7d
ffffeb82
ffffc70f
00002765
00000d72
ffffecdb
ffffd3bb
ffffcc2f
00003b4e
fffff914
ffffc2bb
00000273
00003a19
00002d21
0000289f
00002326
fffff24f
00000982
00002515
00002722
ffffd88f
ffffcdb5
fffff892
00000a69
00001609
00003df1
ffffec76
00002827
000007b5
00002107
fffff7f5
000000e1
ffffc619
ffffcbe4
00001db1
00003eef
000008eb
000037e1
ffffe446
ffffe682
ffffe42d
ffffdb0c
ffffff4d
00001b8b
000028bf
fffffe08
ffffeca8
0000219f
00001e1b
ffffacda
ffffb824
ffffbaf7
ffffd1f6
00003094
0000037c
ffffdd0a
0000008d
00001f48
0000140d
fffffc11
0000395d
ffffc4fb
fffffe21
ffffdf03
00000d1f
ffffdd79
00001638
ffffd4e1
ffffed63
ffffd152
000018be
ffffd51d
000011c8
00002b57
ffffc542
fffff6db
ffffcae7
ffffee3f
000013cd
ffffd70e
fffff23b
00004181
00000067
00001659
00002712
00003142
ffffd70e
fffff862
0000224c
00003c80
ffffc140
ffffeffa
ffffcf89
00001e3c
ffffcd1a
fffff5ca
00002142
fffff2e8
fffffc2b
ffffce01
ffffc03f
ffffd02c
ffffe7de
ffffdf40
fffffe67
ffffb009
ffffc5b5
ffffe9ce
0000354b
ffffdc7e
000006d0
ffffcffa
ffffdda5
fffff562
ffffd24c
000024fa
00002f9e
00001ba5
000034fa
ffffda63
00000163
00002add
00003792
00001f4f
00002c69
000001f0
ffffcaaa
00003278
00002413
fffff895
ffffc9ad
ffffcda7
fffffd6e
fffff9da
ffffcfc5
ffffd31b
00001e99
00000eee
00000079
00001a21
000002bf
00000a0e
ffffc11e
ffffc336
00002f8e
ffffc8db
ffffe968
ffffc602
ffffee8e
00003d75
ffffe6c2
fffff34c
ffffce69
fffffd3b
000027c9
ffffda5b
fffff0f0
ffffe41e
00002e7e
000018e7
00001917
ffffdedf
ffffef70
fffffdba
000016a4
ffffded3
00000adf
00000f2a
ffffdc49
000029d5
00001666
000030ed
ffffee88
fffffd16
ffffef83
ffffef29
fffff312
000030e7
ffffe491
ffffde21
00002d43
00002a30
ffffdd9a
000021e3
00004ea1
ffffe9d6
0000064f
00003a7e
ffffcd2a
00003bf0
0000486c
ffffe938
ffffe079
00001cba
00000497
00003103
00000d6a
fffff5e4
ffffca9e
000024a3
ffffbfc9
00002324
fffff6da
ffffda68
00002e42
fffff521
00003e0f
00000ae8
ffffd179
000006bb
00001583
ffffe939
ffffe7bb
ffffda3a
000042dc
000043b5
ffffee25
000005b7
00004591
0000012c
fffff348
00002973
fffff708
00002049
00001927
ffffc8e1
ffffee42
00000665
ffffcbc3
000026bf
ffffc7ef
fffffb70
ffffd41b
ffffe957
0000197f
ffffc6e3
ffffc86d
00001a78
fffff35f
00002ad3
00001039
fffff677
000046fd
ffffec72
00002fe2
0000005c
ffffe295
00001a5d
00002163
ffffc13a
ffffeed7
fffffe9c
000001a9
fffff46e
ffffd1f2
fffff72b
fffff204
ffffd420
0000212b
00003b2d
fffff701
ffffd5dc
ffffcb65
ffffd6fe
00002aa9
fffff7b5
00003e11
000012fc
00001d9d
00002eba
000047ef
ffffd2cd
00004424
000010ed
000028a7
00002bc1
ffffcef2
000019d8
00001466
fffff0c9
ffffce9d
000021c8
ffffceb5
fffff113
00001515
00002678
000032e5
fffff7c3
00000279
ffffe68e
00000824
ffffea5a
ffffd20b
00003a95
ffffedd7
000017cc
000039b6
ffffddd7
ffffe709
000020b5
ffffff61
ffffd88c
fffff199
000002a3
fffff563
ffffe79c
ffffec15
00002471
ffffd786
ffffe2c8
000015db
fffff6ff
ffffe1fb
ffffc516
000004e8
00002790
000031b0
ffffda7c
ffffe5b5
ffffd062
000018ac
000028a7
0000319e
ffffc65b
ffffd84c
000020b9
00002a20
00002a25
fffffc63
000036fc
000020f7
00003d82
0000127b
00004014
ffffebca
ffffd14d
ffffdae2
ffffd7d2
00000c93
000022e8
00003cf5
00003ed9
00001c3e
000021a6
ffffc3e6
000032b3
fffffe19
ffffe19e
0000195d
fffff85e
00002972
ffffe61e
000011c6
000034b9
00003b88
fffff372
00003592
0000373a
00002381
ffffc9fe
00001e3a
ffffbff8
ffffd64d
000024ea
00000687
ffffd134
00002402
0000346a
ffffee25
ffffc174
ffffd607
ffffc44b
00000000
00000000
00000000
00000000
00000000
00000000
00000000
00000000
00000000
00000000
00000000
00000000
00000000
00000000
00000000
00000000
00000000
00000000
00000000
00000000